unsigned char motion_model_tflite[] = {
  0x1c, 0x00, 0x00, 0x00, 0x54, 0x46, 0x4c, 0x33, 0x14, 0x00, 0x20, 0x00,
  0x1c, 0x00, 0x18, 0x00, 0x14, 0x00, 0x10, 0x00, 0x0c, 0x00, 0x00, 0x00,
  0x08, 0x00, 0x04, 0x00, 0x14, 0x00, 0x00, 0x00, 0x1c, 0x00, 0x00, 0x00,
  0x8c, 0x00, 0x00, 0x00, 0xe4, 0x00, 0x00, 0x00, 0x10, 0x1b, 0x00, 0x00,
  0x20, 0x1b, 0x00, 0x00, 0x7c, 0x22, 0x00, 0x00, 0x03, 0x00, 0x00, 0x00,
  0x01, 0x00, 0x00, 0x00, 0x04, 0x00, 0x00, 0x00, 0xa2, 0xe4, 0xff, 0xff,
  0x0c, 0x00, 0x00, 0x00, 0x1c, 0x00, 0x00, 0x00, 0x3c, 0x00, 0x00, 0x00,
  0x0f, 0x00, 0x00, 0x00, 0x73, 0x65, 0x72, 0x76, 0x69, 0x6e, 0x67, 0x5f,
  0x64, 0x65, 0x66, 0x61, 0x75, 0x6c, 0x74, 0x00, 0x01, 0x00, 0x00, 0x00,
  0x04, 0x00, 0x00, 0x00, 0x90, 0xff, 0xff, 0xff, 0x0a, 0x00, 0x00, 0x00,
  0x04, 0x00, 0x00, 0x00, 0x08, 0x00, 0x00, 0x00, 0x6f, 0x75, 0x74, 0x70,
  0x75, 0x74, 0x5f, 0x30, 0x00, 0x00, 0x00, 0x00, 0x01, 0x00, 0x00, 0x00,
  0x04, 0x00, 0x00, 0x00, 0xb2, 0xe5, 0xff, 0xff, 0x04, 0x00, 0x00, 0x00,
  0x0c, 0x00, 0x00, 0x00, 0x6b, 0x65, 0x72, 0x61, 0x73, 0x5f, 0x74, 0x65,
  0x6e, 0x73, 0x6f, 0x72, 0x00, 0x00, 0x00, 0x00, 0x02, 0x00, 0x00, 0x00,
  0x34, 0x00, 0x00, 0x00, 0x04, 0x00, 0x00, 0x00, 0xdc, 0xff, 0xff, 0xff,
  0x0d, 0x00, 0x00, 0x00, 0x04, 0x00, 0x00, 0x00, 0x13, 0x00, 0x00, 0x00,
  0x43, 0x4f, 0x4e, 0x56, 0x45, 0x52, 0x53, 0x49, 0x4f, 0x4e, 0x5f, 0x4d,
  0x45, 0x54, 0x41, 0x44, 0x41, 0x54, 0x41, 0x00, 0x08, 0x00, 0x0c, 0x00,
  0x08, 0x00, 0x04, 0x00, 0x08, 0x00, 0x00, 0x00, 0x0c, 0x00, 0x00, 0x00,
  0x04, 0x00, 0x00, 0x00, 0x13, 0x00, 0x00, 0x00, 0x6d, 0x69, 0x6e, 0x5f,
  0x72, 0x75, 0x6e, 0x74, 0x69, 0x6d, 0x65, 0x5f, 0x76, 0x65, 0x72, 0x73,
  0x69, 0x6f, 0x6e, 0x00, 0x0e, 0x00, 0x00, 0x00, 0x28, 0x1a, 0x00, 0x00,
  0x20, 0x1a, 0x00, 0x00, 0xd0, 0x19, 0x00, 0x00, 0xb8, 0x11, 0x00, 0x00,
  0xa4, 0x11, 0x00, 0x00, 0x54, 0x11, 0x00, 0x00, 0xc4, 0x10, 0x00, 0x00,
  0xb4, 0x00, 0x00, 0x00, 0xac, 0x00, 0x00, 0x00, 0xa4, 0x00, 0x00, 0x00,
  0x9c, 0x00, 0x00, 0x00, 0x94, 0x00, 0x00, 0x00, 0x74, 0x00, 0x00, 0x00,
  0x04, 0x00, 0x00, 0x00, 0x66, 0xe6, 0xff, 0xff, 0x04, 0x00, 0x00, 0x00,
  0x60, 0x00, 0x00, 0x00, 0x0c, 0x00, 0x00, 0x00, 0x08, 0x00, 0x0e, 0x00,
  0x08, 0x00, 0x04, 0x00, 0x08, 0x00, 0x00, 0x00, 0x10, 0x00, 0x00, 0x00,
  0x28, 0x00, 0x00, 0x00, 0x00, 0x00, 0x06, 0x00, 0x08, 0x00, 0x04, 0x00,
  0x06, 0x00, 0x00, 0x00, 0x04, 0x00, 0x00, 0x00, 0x01, 0x00, 0x00, 0x00,
  0xea, 0x03, 0x00, 0x00, 0x0c, 0x00, 0x18, 0x00, 0x14, 0x00, 0x10, 0x00,
  0x0c, 0x00, 0x04, 0x00, 0x0c, 0x00, 0x00, 0x00, 0x3f, 0x94, 0x09, 0x64,
  0x15, 0x6c, 0x8f, 0xcf, 0x02, 0x00, 0x00, 0x00, 0x02, 0x00, 0x00, 0x00,
  0x04, 0x00, 0x00, 0x00, 0x06, 0x00, 0x00, 0x00, 0x32, 0x2e, 0x31, 0x39,
  0x2e, 0x30, 0x00, 0x00, 0xd2, 0xe6, 0xff, 0xff, 0x04, 0x00, 0x00, 0x00,
  0x10, 0x00, 0x00, 0x00, 0x32, 0x2e, 0x31, 0x37, 0x2e, 0x30, 0x00, 0x00,
  0x00, 0x00, 0x00, 0x00, 0x00, 0x00, 0x00, 0x00, 0x58, 0xdf, 0xff, 0xff,
  0x5c, 0xdf, 0xff, 0xff, 0x60, 0xdf, 0xff, 0xff, 0x64, 0xdf, 0xff, 0xff,
  0xfe, 0xe6, 0xff, 0xff, 0x04, 0x00, 0x00, 0x00, 0x00, 0x10, 0x00, 0x00,
  0x9b, 0x2d, 0x8e, 0x3a, 0x1e, 0x3d, 0x87, 0xb0, 0x9d, 0xfc, 0xf7, 0x2f,
  0xb6, 0xaa, 0x92, 0xd2, 0xbd, 0xf5, 0x20, 0x45, 0xbe, 0x79, 0x2b, 0x6a,
  0x83, 0x8c, 0x34, 0x6e, 0xe3, 0x45, 0x36, 0x5d, 0x62, 0x09, 0xcc, 0xc0,
  0x41, 0xa7, 0x9b, 0x90, 0xf4, 0xfb, 0xe2, 0x9d, 0x8c, 0x6a, 0xbb, 0x4f,
  0x5f, 0xd2, 0x27, 0x8e, 0xf7, 0xe3, 0x43, 0x5e, 0x4f, 0x88, 0x8c, 0x29,
  0x5e, 0xc7, 0xd1, 0x1e, 0x25, 0x2d, 0x1f, 0x5f, 0x65, 0x84, 0x75, 0x62,
  0xaf, 0x03, 0xaa, 0x38, 0xa5, 0xa0, 0x49, 0x20, 0xba, 0xc0, 0xce, 0x0d,
  0x89, 0x31, 0xb1, 0x13, 0x4d, 0xac, 0x70, 0xb0, 0x2d, 0x92, 0x1d, 0xf8,
  0x4e, 0xe2, 0xc2, 0x54, 0x81, 0xeb, 0x40, 0x65, 0x8e, 0x72, 0xec, 0x6b,
  0x6a, 0xdf, 0x48, 0x3a, 0x20, 0x44, 0x41, 0x91, 0x54, 0xb1, 0x93, 0x1a,
  0x4a, 0x6c, 0x05, 0xf7, 0x62, 0x19, 0x8d, 0x5e, 0xa5, 0x3b, 0x03, 0x45,
  0x08, 0xdb, 0xe8, 0x4f, 0xc5, 0x7f, 0xca, 0xcf, 0xa3, 0x9d, 0x22, 0x7b,
  0xa5, 0x71, 0x65, 0xe2, 0x0b, 0x27, 0xc3, 0xf2, 0xc2, 0x37, 0x5c, 0xb1,
  0xfc, 0x2d, 0xe2, 0x6b, 0xa9, 0x4b, 0x8e, 0xe0, 0x18, 0x24, 0x9a, 0x6d,
  0x27, 0x0e, 0xee, 0x5f, 0xdd, 0x63, 0x54, 0xfa, 0xf9, 0x54, 0x8e, 0x5a,
  0xd4, 0x56, 0x14, 0xd6, 0xd6, 0xdc, 0x00, 0xef, 0x3d, 0x5c, 0xab, 0x08,
  0xc0, 0x2b, 0x7f, 0x10, 0xf3, 0x0c, 0x3c, 0x32, 0xda, 0x36, 0xf4, 0xc9,
  0x28, 0x26, 0x32, 0xf7, 0x31, 0x40, 0xdf, 0x1a, 0xbc, 0xe3, 0x06, 0x3b,
  0x56, 0x64, 0xff, 0xf6, 0xa6, 0x08, 0x2e, 0x0d, 0x4c, 0x93, 0x65, 0xd5,
  0xc7, 0x40, 0xfb, 0x08, 0x8f, 0xd2, 0x42, 0xf7, 0x30, 0xbc, 0xd5, 0x2b,
  0xb1, 0x25, 0xa9, 0xdc, 0xef, 0x7f, 0xe5, 0x73, 0xb9, 0x8e, 0x53, 0x9d,
  0xc7, 0x17, 0xc8, 0xdf, 0x90, 0xe9, 0x38, 0x23, 0xe3, 0xa3, 0xb0, 0x0c,
  0x8c, 0x11, 0x54, 0xc1, 0xf4, 0x53, 0xa9, 0xe7, 0xbb, 0xc1, 0x0c, 0x95,
  0xd7, 0xe7, 0xa6, 0x53, 0x09, 0x62, 0x90, 0xc3, 0x2a, 0x02, 0xcb, 0x0e,
  0xaa, 0x1f, 0xa2, 0xa1, 0xc1, 0xf9, 0x7f, 0xc7, 0x6b, 0xf3, 0xa5, 0x25,
  0x9b, 0x54, 0xf4, 0x45, 0x66, 0xf1, 0x45, 0xea, 0xbd, 0x1d, 0x9e, 0x99,
  0xf1, 0x45, 0x0b, 0xb8, 0xeb, 0xe0, 0x91, 0x0e, 0x03, 0x70, 0x18, 0x10,
  0xbf, 0x33, 0xf5, 0x43, 0x4e, 0xc2, 0xb3, 0x23, 0x33, 0x15, 0x98, 0x7e,
  0xb2, 0x5e, 0x18, 0x45, 0x9d, 0x14, 0x2b, 0xc8, 0x15, 0xc0, 0x6d, 0x0f,
  0x18, 0x52, 0x86, 0x1d, 0xcf, 0xf8, 0x06, 0x6d, 0x2d, 0xac, 0xd3, 0xd0,
  0x97, 0xaa, 0x95, 0xd7, 0xc2, 0xc6, 0x5b, 0x68, 0x4e, 0x90, 0x0e, 0xd5,
  0xb2, 0xd7, 0x56, 0x39, 0x8c, 0x40, 0x7a, 0x7d, 0xda, 0x44, 0x8f, 0x32,
  0xd9, 0x79, 0xf4, 0xf3, 0xd3, 0xb0, 0x41, 0x48, 0x55, 0xcc, 0x50, 0xf8,
  0x06, 0xd2, 0x34, 0x16, 0xde, 0x34, 0x57, 0xae, 0x68, 0xca, 0x46, 0x38,
  0x51, 0x94, 0x75, 0x4d, 0x0e, 0x50, 0xf0, 0xca, 0x7b, 0xe6, 0x33, 0xec,
  0xee, 0x38, 0xe4, 0xa2, 0xeb, 0x9b, 0x27, 0x30, 0x1b, 0x39, 0x7a, 0xe4,
  0x0a, 0x5b, 0xd9, 0xf6, 0xca, 0xbd, 0x0c, 0xc3, 0xa2, 0xe2, 0x89, 0x37,
  0x2c, 0x21, 0xb2, 0x3f, 0x8d, 0x88, 0x63, 0x5c, 0xf7, 0x08, 0xd3, 0x42,
  0xff, 0xb9, 0x3c, 0x16, 0xc5, 0x17, 0x30, 0xff, 0xfe, 0x26, 0xeb, 0x2e,
  0x28, 0x32, 0xab, 0xa8, 0xab, 0xde, 0x36, 0xfd, 0xf5, 0xdd, 0xeb, 0xc2,
  0xc5, 0xa6, 0x9e, 0x50, 0xa6, 0xee, 0xd0, 0xd8, 0x19, 0xce, 0xdf, 0x43,
  0x6a, 0x03, 0x2f, 0xf8, 0xf6, 0xc5, 0x81, 0x92, 0x28, 0x94, 0x3a, 0x11,
  0x4a, 0xeb, 0xd1, 0xb3, 0x0a, 0xfc, 0x73, 0x3e, 0x86, 0x4b, 0xe1, 0x12,
  0x91, 0xaf, 0x82, 0x9e, 0x3f, 0x41, 0x46, 0x1f, 0xcc, 0x59, 0x77, 0xd5,
  0x96, 0x27, 0x7f, 0x25, 0xc6, 0x73, 0x85, 0xdb, 0x8f, 0x1e, 0xb7, 0xbc,
  0x8e, 0x6d, 0x7a, 0x83, 0x01, 0xa3, 0x9f, 0x20, 0x3f, 0xce, 0x24, 0x1d,
  0xd1, 0x8a, 0xb5, 0xae, 0x62, 0x73, 0xc4, 0xc8, 0x28, 0x9a, 0x90, 0x5a,
  0x1e, 0x91, 0x6b, 0x47, 0x1b, 0x97, 0x25, 0x85, 0xae, 0xac, 0x5b, 0xe8,
  0xe1, 0xbe, 0x30, 0x1e, 0x1b, 0x3f, 0xc1, 0x0d, 0x0e, 0x59, 0x09, 0xe4,
  0x16, 0x51, 0x16, 0xdf, 0x76, 0x74, 0x51, 0x5e, 0x6d, 0x4b, 0x84, 0xfb,
  0x11, 0x8f, 0x5c, 0x34, 0xf9, 0x83, 0x1e, 0x5d, 0xfd, 0xe0, 0xdd, 0x58,
  0x19, 0xb2, 0x94, 0xaf, 0x99, 0x10, 0xd5, 0x98, 0xfa, 0xb5, 0x60, 0xda,
  0xee, 0x2b, 0xb6, 0x9b, 0xa3, 0xee, 0xd2, 0xd3, 0xa7, 0x61, 0x3d, 0x11,
  0x27, 0xb3, 0xed, 0x27, 0x73, 0x1e, 0x10, 0xbc, 0x18, 0x63, 0xd5, 0x69,
  0x9f, 0x6d, 0x87, 0xad, 0x7c, 0x52, 0xe2, 0x64, 0x11, 0x98, 0xe5, 0xdf,
  0x28, 0x1e, 0xac, 0x20, 0xc6, 0xfb, 0xca, 0x9f, 0x39, 0x1f, 0x78, 0x90,
  0xf2, 0xcd, 0x0b, 0xf2, 0xbf, 0xb6, 0xa0, 0xc5, 0x12, 0x52, 0x07, 0x3f,
  0x36, 0x14, 0x7d, 0xc2, 0xf7, 0xcf, 0xa0, 0xe9, 0x67, 0x9d, 0xd1, 0x90,
  0x5d, 0x74, 0xaf, 0xfe, 0xc6, 0x34, 0x8d, 0x75, 0x94, 0x5e, 0xd3, 0x23,
  0xf1, 0x2d, 0xb9, 0x8e, 0x1c, 0x36, 0x24, 0xf9, 0x91, 0x3b, 0x8d, 0xfa,
  0xbd, 0x7b, 0x76, 0xa0, 0xdd, 0xa0, 0xaf, 0x07, 0x55, 0x34, 0x8d, 0x29,
  0x03, 0x1b, 0x68, 0x7c, 0x85, 0x68, 0xa9, 0xb7, 0x75, 0xc0, 0xe3, 0xeb,
  0xb9, 0x69, 0xff, 0x76, 0xed, 0xde, 0x29, 0x0b, 0x9b, 0x76, 0x42, 0x7f,
  0x65, 0xb3, 0x88, 0x3e, 0x68, 0x08, 0x90, 0xc3, 0xab, 0xec, 0xe6, 0xec,
  0x78, 0xe3, 0x0c, 0x0c, 0x4c, 0x88, 0xee, 0x8b, 0xe0, 0x6f, 0x9e, 0x17,
  0xb1, 0xdf, 0x1f, 0xd0, 0x11, 0x29, 0x63, 0x01, 0x2c, 0xbd, 0x22, 0x68,
  0x4c, 0x62, 0x3c, 0x30, 0xc7, 0x7c, 0x44, 0x52, 0x1a, 0x8c, 0x36, 0xe3,
  0xa1, 0xcb, 0xab, 0xee, 0x4c, 0x54, 0x4f, 0xf2, 0x7b, 0x49, 0x55, 0xea,
  0x1e, 0x87, 0xb1, 0xff, 0x44, 0x87, 0xf8, 0x1f, 0x43, 0x58, 0x30, 0x60,
  0xd4, 0xc3, 0xe8, 0x4b, 0xf4, 0xe7, 0xb9, 0xba, 0xde, 0x50, 0xc9, 0x50,
  0xb9, 0x07, 0xf1, 0x90, 0x32, 0x6f, 0x24, 0x81, 0xe9, 0xa2, 0x6a, 0x18,
  0x20, 0x2d, 0x17, 0xc0, 0xbe, 0x6f, 0x8b, 0x01, 0xaf, 0x83, 0x4e, 0x28,
  0xa8, 0xe9, 0x0e, 0xd0, 0xf6, 0xa6, 0xb3, 0xd4, 0x40, 0x16, 0x85, 0x03,
  0x9b, 0xce, 0x35, 0xfe, 0xfe, 0xe5, 0xcd, 0x19, 0x43, 0xdd, 0x5f, 0xeb,
  0x8d, 0xf2, 0x13, 0xec, 0xb5, 0xf9, 0xc7, 0x3f, 0x20, 0xbf, 0xd9, 0x77,
  0x2a, 0x00, 0x69, 0xd5, 0x0f, 0x8e, 0xbd, 0x64, 0x3f, 0x73, 0xe9, 0xdf,
  0xb1, 0xb2, 0x6f, 0xf1, 0xe9, 0x6b, 0xae, 0x0c, 0x29, 0x0c, 0xdf, 0xf4,
  0xaf, 0x20, 0x2e, 0xc6, 0x03, 0x90, 0xa3, 0x81, 0x57, 0xd9, 0xb5, 0x06,
  0xec, 0xb7, 0xc8, 0xea, 0x8c, 0x2f, 0xc4, 0x44, 0xe2, 0xc9, 0x24, 0x54,
  0x2a, 0x4b, 0x14, 0x7c, 0x6e, 0xd8, 0x94, 0x6e, 0xf6, 0x8d, 0xd0, 0xe8,
  0x78, 0xd8, 0xf9, 0xd5, 0x7d, 0x4c, 0x0c, 0xfc, 0xec, 0x82, 0xe2, 0x9a,
  0x5b, 0x98, 0x11, 0x71, 0xa2, 0xdf, 0xad, 0x15, 0x24, 0x9a, 0xe5, 0x05,
  0xcd, 0xd0, 0x3d, 0x24, 0x44, 0x7f, 0x92, 0xb1, 0x4a, 0x10, 0xab, 0x7f,
  0x51, 0x23, 0x5f, 0x87, 0x11, 0xb9, 0x60, 0xe8, 0xd2, 0x8f, 0x8c, 0x93,
  0xff, 0xed, 0x8f, 0x27, 0xf2, 0xa2, 0x1a, 0x8d, 0x8a, 0x93, 0x4b, 0xaf,
  0xb9, 0xa0, 0xac, 0x9f, 0xfc, 0xcc, 0x96, 0x17, 0x24, 0x25, 0x81, 0x6d,
  0x83, 0x92, 0x6d, 0x08, 0xd1, 0x2f, 0xa9, 0xb7, 0x36, 0x09, 0xad, 0x2d,
  0x12, 0x5f, 0x1d, 0x17, 0x2a, 0x34, 0x46, 0xb6, 0x53, 0x42, 0xf2, 0x6e,
  0xca, 0x53, 0xe8, 0xae, 0x95, 0x54, 0x81, 0x42, 0xde, 0xa8, 0xca, 0x67,
  0x66, 0x21, 0xa5, 0xed, 0x5c, 0xa8, 0x4f, 0x19, 0x15, 0xd4, 0xf5, 0xd6,
  0xb2, 0x47, 0xbe, 0x5a, 0x6f, 0x01, 0x0d, 0x99, 0x15, 0x17, 0x9a, 0xdc,
  0xe7, 0x63, 0xe8, 0xf7, 0x72, 0xca, 0xe0, 0xe1, 0xbe, 0x6a, 0xaa, 0x8a,
  0xbe, 0x98, 0xa3, 0x1e, 0x88, 0x54, 0xbf, 0xbd, 0x28, 0x3c, 0x11, 0xad,
  0xd5, 0x90, 0x16, 0x1e, 0x5f, 0x51, 0xc2, 0x83, 0x17, 0xf3, 0x4e, 0xf2,
  0xa6, 0xc5, 0xa5, 0x8e, 0x00, 0x83, 0x5e, 0xdb, 0x63, 0x94, 0x5a, 0xc2,
  0x9e, 0xd3, 0xef, 0x8b, 0xff, 0x45, 0x55, 0x50, 0x5d, 0x00, 0x9e, 0xf7,
  0x77, 0x3f, 0x04, 0x0b, 0xe3, 0xad, 0xd2, 0x90, 0xe7, 0xc3, 0xa4, 0xa5,
  0xe0, 0xfd, 0xf0, 0x74, 0xcb, 0x9a, 0x76, 0x3b, 0x37, 0x4b, 0x87, 0xba,
  0x05, 0x58, 0x8b, 0x6a, 0xff, 0x33, 0x16, 0xa0, 0xfc, 0x58, 0x6b, 0x52,
  0x07, 0x9b, 0x21, 0x57, 0x50, 0x5d, 0x65, 0x63, 0xe7, 0x63, 0x0e, 0x60,
  0x98, 0x9b, 0xd1, 0x7a, 0xb1, 0x9a, 0xb4, 0xd6, 0x9e, 0x1e, 0x71, 0x2a,
  0x92, 0xa3, 0x7b, 0x32, 0xc7, 0x76, 0xee, 0x5c, 0xce, 0xbc, 0xe6, 0x09,
  0x43, 0x65, 0xb2, 0x5e, 0xac, 0xf3, 0xda, 0x18, 0x91, 0x43, 0x73, 0x20,
  0x53, 0x09, 0xec, 0x32, 0x75, 0x2f, 0xef, 0x61, 0x5e, 0x7f, 0x22, 0xdc,
  0x6d, 0xf1, 0x4c, 0x56, 0xee, 0xea, 0xd1, 0x25, 0x4f, 0xf6, 0xd1, 0xf2,
  0x74, 0x74, 0xee, 0x31, 0x4f, 0x13, 0x94, 0x58, 0x7a, 0x0d, 0x00, 0x7c,
  0xcf, 0xa2, 0x36, 0x08, 0xd4, 0xd7, 0xda, 0x67, 0x5b, 0x40, 0x5d, 0x85,
  0x15, 0x60, 0x73, 0x91, 0xca, 0x12, 0x17, 0x4a, 0x19, 0xb5, 0x68, 0x95,
  0xa1, 0x55, 0x6c, 0x54, 0x1c, 0xe3, 0xa1, 0xa9, 0xca, 0x91, 0x22, 0xbf,
  0x3b, 0xf9, 0x75, 0xc4, 0x0f, 0x32, 0xce, 0xfb, 0xda, 0xed, 0xfb, 0x71,
  0xe7, 0xcf, 0x33, 0x63, 0xdf, 0x5a, 0x01, 0x1d, 0x2d, 0x98, 0x3a, 0xc3,
  0x99, 0xe0, 0x75, 0x8c, 0x34, 0x25, 0x37, 0x69, 0xfc, 0xfd, 0x97, 0x81,
  0x6d, 0x4c, 0xd0, 0xa2, 0x02, 0xa3, 0x2f, 0x53, 0x54, 0x90, 0x8a, 0xc7,
  0x3e, 0xac, 0x74, 0x4e, 0x9d, 0x94, 0x2c, 0x67, 0xdd, 0x96, 0xda, 0x9e,
  0xa3, 0xff, 0x1e, 0x16, 0x4f, 0xec, 0xc2, 0x5b, 0x58, 0x0f, 0xe1, 0xc7,
  0x43, 0xd9, 0x08, 0x5e, 0x9f, 0x14, 0x93, 0xe6, 0xa9, 0x63, 0x98, 0xa0,
  0x42, 0x96, 0x13, 0x89, 0xc5, 0x28, 0x04, 0x79, 0xff, 0x89, 0xc2, 0x95,
  0xf1, 0x60, 0x45, 0xc7, 0x71, 0xbb, 0xe8, 0xa0, 0x71, 0x78, 0x2d, 0x60,
  0x92, 0xaf, 0x45, 0xc6, 0x73, 0xc6, 0xf2, 0x57, 0x75, 0x2c, 0x67, 0xcd,
  0xbf, 0x16, 0x6d, 0x1b, 0xd6, 0xd5, 0x5f, 0x49, 0xc9, 0x94, 0x1a, 0xa6,
  0xe2, 0xdf, 0x6b, 0xcd, 0x88, 0xd6, 0x7f, 0xc4, 0xb9, 0xac, 0x06, 0xd3,
  0x4b, 0xe7, 0xb0, 0x9e, 0x1a, 0xe7, 0x1a, 0x72, 0x20, 0x28, 0x0a, 0x0b,
  0x6f, 0xed, 0xeb, 0xc7, 0xec, 0xf9, 0xcc, 0xa6, 0xb4, 0x08, 0x4c, 0x02,
  0xff, 0x41, 0xb6, 0x36, 0x78, 0xfa, 0x6e, 0x72, 0x89, 0x15, 0x31, 0x25,
  0xe4, 0xcc, 0x1f, 0xb6, 0xfb, 0x77, 0xa6, 0xd8, 0xc6, 0x3c, 0x3c, 0x65,
  0xa2, 0xcf, 0x8f, 0xe0, 0x44, 0x9f, 0x59, 0x8e, 0xbc, 0x35, 0x06, 0x89,
  0x64, 0x64, 0x70, 0x87, 0xa1, 0x37, 0x30, 0x97, 0xea, 0x1f, 0x1b, 0xec,
  0x12, 0xb8, 0x07, 0xa7, 0xcc, 0xba, 0x27, 0x42, 0x07, 0x37, 0xa5, 0xf0,
  0x1b, 0x7f, 0x41, 0x45, 0xc3, 0xeb, 0x3a, 0xef, 0x08, 0x83, 0x48, 0xe7,
  0x1c, 0x92, 0x4c, 0x65, 0x89, 0x9b, 0x12, 0xd5, 0x08, 0xd3, 0x37, 0xc9,
  0x81, 0xea, 0xd5, 0x32, 0x00, 0xfa, 0x98, 0x0a, 0xb3, 0xb3, 0x8b, 0xbf,
  0xd1, 0xab, 0x83, 0xb3, 0x13, 0x6d, 0x51, 0x53, 0xe6, 0x99, 0x28, 0x69,
  0x4d, 0xa8, 0xbc, 0x53, 0x32, 0xd5, 0x2c, 0x48, 0x46, 0x2e, 0xc8, 0x7b,
  0x9a, 0x2a, 0x25, 0x61, 0x3a, 0xea, 0x7c, 0x5d, 0x6d, 0x4a, 0x41, 0x73,
  0xea, 0xcf, 0x35, 0x20, 0xd9, 0x6c, 0x08, 0x96, 0x08, 0xff, 0x87, 0xcd,
  0x58, 0x10, 0xd2, 0xa9, 0x5d, 0x16, 0xc2, 0xce, 0x33, 0x43, 0x62, 0x44,
  0xc1, 0x9c, 0xaa, 0x35, 0x23, 0x37, 0x74, 0x39, 0x22, 0x94, 0x42, 0x83,
  0x40, 0xbe, 0x7d, 0xec, 0x9a, 0x76, 0x47, 0x2a, 0xb4, 0x92, 0xfb, 0xa5,
  0xfb, 0xdf, 0x73, 0x7c, 0x8c, 0x13, 0xf0, 0xce, 0x2d, 0x6b, 0x3a, 0x13,
  0x1e, 0x7b, 0x7c, 0x25, 0x9b, 0x03, 0xbd, 0x81, 0xac, 0xe3, 0x9d, 0x5c,
  0x38, 0x7b, 0xd2, 0xfe, 0x90, 0x8b, 0x99, 0xed, 0xb1, 0x92, 0x85, 0x59,
  0xb9, 0xcd, 0x9e, 0xba, 0x00, 0x71, 0x8d, 0x1c, 0x24, 0x2e, 0x7e, 0x57,
  0x5d, 0xea, 0x24, 0x61, 0xfc, 0xac, 0xfd, 0xff, 0xda, 0x8d, 0xfd, 0xd1,
  0x2c, 0xce, 0xaa, 0x2c, 0xc3, 0xb2, 0xd4, 0x74, 0x8a, 0x48, 0xf2, 0xdd,
  0xb0, 0x9b, 0x7a, 0x28, 0xdc, 0x86, 0x26, 0xa2, 0x11, 0xc7, 0x55, 0xce,
  0xd8, 0x42, 0x2c, 0x39, 0x3c, 0x3d, 0xaa, 0x93, 0x3b, 0x0d, 0x12, 0x58,
  0x6c, 0xf4, 0xa7, 0xb7, 0x30, 0xf4, 0x64, 0xbe, 0xb8, 0xce, 0x8e, 0x90,
  0xdf, 0xf7, 0xfe, 0x16, 0xbd, 0xd3, 0x97, 0xff, 0x53, 0x83, 0x4e, 0xf4,
  0x5e, 0x7a, 0x88, 0x3b, 0x4b, 0x0a, 0xb3, 0xd7, 0x33, 0xe1, 0x7e, 0xf6,
  0xa2, 0x93, 0x86, 0x88, 0x7c, 0x8b, 0x72, 0xe4, 0x8d, 0x0c, 0x34, 0xa5,
  0x0f, 0xbc, 0x30, 0xc5, 0xef, 0xb4, 0x99, 0x24, 0x32, 0x64, 0xcc, 0x37,
  0x3b, 0x0d, 0x70, 0x95, 0xb2, 0xa7, 0x89, 0x58, 0xfe, 0x19, 0xcd, 0x69,
  0xe1, 0x50, 0x2d, 0xdc, 0x21, 0xcb, 0x4c, 0x91, 0xe1, 0xec, 0xe0, 0x5c,
  0xaa, 0x32, 0xea, 0x7e, 0x11, 0x13, 0x9b, 0x8d, 0x3b, 0x86, 0x6f, 0x0b,
  0x74, 0xb7, 0xcd, 0x8a, 0xd6, 0xba, 0x85, 0x8e, 0x3c, 0x4e, 0x5f, 0xe6,
  0x4e, 0xab, 0x5d, 0x57, 0x66, 0x3a, 0x19, 0xe4, 0xcd, 0x77, 0x4d, 0x86,
  0xad, 0x51, 0x3f, 0x35, 0x3d, 0x6f, 0x93, 0xd8, 0x1c, 0xa9, 0xc9, 0xa8,
  0x8f, 0x43, 0x67, 0x81, 0x3b, 0x01, 0x87, 0xf5, 0xa6, 0x54, 0x52, 0xc0,
  0xd6, 0xdd, 0xe7, 0x2b, 0x26, 0xd1, 0xc5, 0x43, 0xb3, 0xf9, 0x0a, 0x6a,
  0x45, 0xf9, 0xc1, 0x14, 0x68, 0xb3, 0x44, 0xb9, 0x5b, 0x62, 0xca, 0x40,
  0xeb, 0x75, 0xda, 0xa7, 0x45, 0xa5, 0x97, 0xa3, 0x43, 0xea, 0x67, 0xe2,
  0xe0, 0x99, 0x91, 0x57, 0xcf, 0x68, 0x76, 0x5c, 0xfd, 0xc8, 0x3d, 0xb5,
  0x2b, 0x1e, 0xd5, 0xd0, 0x0c, 0x00, 0xf6, 0x5f, 0x96, 0x75, 0xec, 0x49,
  0x25, 0xa5, 0x81, 0x83, 0x20, 0x68, 0xba, 0x12, 0x41, 0x76, 0x85, 0xe0,
  0x74, 0x23, 0xa4, 0x75, 0x32, 0xba, 0x69, 0xcf, 0xd3, 0x56, 0x52, 0x6e,
  0xbd, 0xfe, 0xb4, 0xdb, 0x71, 0x83, 0xca, 0xda, 0xde, 0xee, 0x76, 0x69,
  0xfc, 0x5e, 0x6a, 0x2f, 0xe0, 0x52, 0x52, 0x99, 0x9a, 0x00, 0x45, 0x1b,
  0x03, 0x91, 0x6e, 0xaa, 0x5a, 0xe4, 0xeb, 0x17, 0xce, 0xe9, 0xd7, 0x98,
  0xad, 0x3c, 0x19, 0x93, 0xb5, 0x61, 0x9a, 0x1e, 0xf0, 0x2e, 0xab, 0x55,
  0xfb, 0x9a, 0x17, 0xb2, 0xc4, 0xc9, 0xa3, 0x95, 0xbb, 0x2e, 0x78, 0xd1,
  0x52, 0x61, 0x46, 0x52, 0x8a, 0x35, 0xd0, 0x1b, 0xd3, 0x52, 0x00, 0x1c,
  0x85, 0xfb, 0xb7, 0xca, 0xa9, 0xb5, 0x74, 0x3f, 0xf9, 0xeb, 0x3d, 0x9b,
  0x78, 0xf8, 0x52, 0xeb, 0xee, 0x24, 0x97, 0x8e, 0x2e, 0x21, 0x84, 0x85,
  0xdf, 0x85, 0xa8, 0x38, 0x1a, 0x0c, 0x4e, 0x0d, 0x11, 0x41, 0x5c, 0x5f,
  0xee, 0xfe, 0x01, 0x12, 0xd5, 0x7a, 0xf9, 0x1c, 0x85, 0xa1, 0x0b, 0x10,
  0x18, 0xd6, 0xa0, 0xb9, 0x3c, 0x5b, 0xc2, 0x6a, 0x29, 0xf6, 0x85, 0x81,
  0x53, 0x40, 0xf1, 0xd4, 0x79, 0x97, 0x2e, 0xa3, 0xe8, 0x49, 0x19, 0x51,
  0x0e, 0x9e, 0xf0, 0x50, 0xe3, 0x6a, 0x45, 0xa3, 0xf4, 0xdd, 0xed, 0x34,
  0x10, 0x6c, 0x4f, 0x05, 0x94, 0x58, 0x1c, 0xa9, 0xf6, 0x6b, 0xf9, 0x17,
  0x12, 0xe8, 0xc1, 0x86, 0x7e, 0x60, 0xf0, 0x47, 0x69, 0x1f, 0x53, 0x23,
  0x78, 0x7d, 0x85, 0xee, 0xa6, 0x7f, 0xf0, 0x75, 0x30, 0x5f, 0xab, 0x60,
  0xcf, 0x9a, 0x87, 0xcf, 0x60, 0x1d, 0x64, 0x35, 0xba, 0x08, 0x1a, 0x0c,
  0xb3, 0x88, 0x40, 0x54, 0x3a, 0x5b, 0xdb, 0xdc, 0xe0, 0x5a, 0xfb, 0x6f,
  0x6b, 0xb6, 0x61, 0xe4, 0xda, 0x88, 0x5a, 0x54, 0x93, 0xc3, 0x9b, 0x68,
  0x66, 0x8f, 0x6e, 0xfd, 0xbe, 0xce, 0xea, 0xf4, 0xa0, 0xfc, 0xd6, 0x8d,
  0x87, 0x1f, 0x07, 0x3b, 0x47, 0xe1, 0x24, 0x4e, 0x9e, 0x3f, 0x14, 0x81,
  0xe4, 0x8f, 0xb0, 0x04, 0x5a, 0x27, 0xb7, 0x4a, 0x3b, 0xd8, 0xdf, 0xd6,
  0x9e, 0xd2, 0xa7, 0xf9, 0x70, 0x55, 0xf2, 0x62, 0x3c, 0xd5, 0x3c, 0x8b,
  0xbf, 0xa1, 0xa4, 0x2c, 0x04, 0x6e, 0x51, 0xc0, 0xc7, 0xd9, 0x62, 0x88,
  0x54, 0xa2, 0xd8, 0xb6, 0x9e, 0x92, 0x8b, 0x18, 0xaa, 0x98, 0x30, 0x77,
  0x42, 0x8a, 0x0b, 0xcb, 0xcc, 0x3b, 0x2c, 0x1e, 0xe8, 0x4b, 0xad, 0xa6,
  0x9e, 0x53, 0xc0, 0xb5, 0x9f, 0xe1, 0xf9, 0xd7, 0x11, 0x63, 0xf3, 0x46,
  0xaa, 0x2f, 0x75, 0x5e, 0x40, 0xb7, 0x8b, 0x2b, 0x38, 0x8c, 0xac, 0xe2,
  0x4f, 0xe3, 0x81, 0x67, 0x35, 0x76, 0x04, 0x6f, 0x22, 0x10, 0x9d, 0x0f,
  0xbf, 0x5e, 0x62, 0xec, 0x8f, 0x85, 0x68, 0x2c, 0x98, 0xfc, 0xd5, 0xa5,
  0x3a, 0xe1, 0xac, 0x76, 0x02, 0xc6, 0x65, 0x86, 0x65, 0x94, 0x8c, 0x27,
  0x82, 0x81, 0x61, 0x95, 0x2b, 0x35, 0x6e, 0xbc, 0x00, 0xa3, 0xc2, 0x67,
  0xa9, 0x86, 0x91, 0x26, 0xbe, 0x4f, 0x88, 0x9f, 0xfb, 0xfd, 0x3b, 0x3f,
  0x07, 0xf2, 0xc5, 0x2b, 0x98, 0xa0, 0x85, 0x0c, 0x06, 0x27, 0x2e, 0x30,
  0x58, 0xad, 0x8c, 0x43, 0xb2, 0x07, 0x6b, 0xfc, 0xee, 0x89, 0x40, 0x7e,
  0x26, 0x01, 0xe8, 0x7e, 0x40, 0xe5, 0xee, 0x45, 0x2f, 0x85, 0x04, 0xaa,
  0x77, 0xa8, 0xe6, 0xea, 0x55, 0x82, 0x8a, 0xc8, 0x19, 0x96, 0x9a, 0x76,
  0x66, 0xf2, 0xee, 0xcc, 0x8e, 0x6c, 0xc1, 0xd1, 0x64, 0xc8, 0xd9, 0xa9,
  0x5a, 0x71, 0xc9, 0x39, 0xbf, 0xb3, 0x55, 0x25, 0xf9, 0x93, 0x3a, 0x56,
  0x49, 0x2f, 0x7e, 0xe6, 0xd0, 0xaf, 0x75, 0x46, 0x03, 0xdb, 0x09, 0x7b,
  0x08, 0x8e, 0x42, 0xad, 0x8e, 0x6f, 0xac, 0x1f, 0x00, 0x9a, 0x48, 0xa2,
  0x2b, 0x3e, 0x28, 0x7f, 0x2c, 0x8c, 0x5e, 0xba, 0x94, 0x3f, 0x92, 0xba,
  0x29, 0x26, 0xe3, 0x4d, 0x3d, 0xa5, 0xea, 0x8f, 0x4e, 0x2a, 0xf3, 0xa4,
  0x82, 0xa0, 0x44, 0x69, 0xe5, 0x31, 0x57, 0xf8, 0xff, 0xcf, 0x67, 0x4e,
  0xc6, 0x10, 0x02, 0x91, 0x8e, 0x8b, 0xe8, 0x9b, 0xb8, 0x81, 0xa0, 0x45,
  0x83, 0x43, 0xf1, 0x87, 0x48, 0xed, 0x6e, 0x3e, 0xed, 0xa2, 0x53, 0x82,
  0xd4, 0x5a, 0x4d, 0x3a, 0x0e, 0xc2, 0x2a, 0x63, 0x0e, 0xdd, 0x8e, 0x31,
  0xe1, 0x7a, 0xb5, 0x4e, 0xb9, 0xb1, 0xb1, 0xaf, 0x5c, 0xbb, 0xff, 0x55,
  0xaf, 0x97, 0x2a, 0xf4, 0xcb, 0x96, 0x22, 0xd1, 0x16, 0xb1, 0x4f, 0x22,
  0xca, 0x6a, 0x8b, 0x51, 0x99, 0x7e, 0x01, 0x61, 0x5b, 0xe4, 0xb0, 0x7f,
  0x54, 0x1a, 0xaa, 0xfa, 0x79, 0x0b, 0x17, 0x08, 0x94, 0x2b, 0x32, 0xd4,
  0xf4, 0xe6, 0x2f, 0xb0, 0x90, 0x05, 0x03, 0xc3, 0x71, 0xec, 0x4f, 0x59,
  0xc8, 0x59, 0x36, 0x75, 0x0c, 0xb3, 0x6b, 0x41, 0x77, 0xb4, 0xbb, 0x78,
  0xb2, 0x1a, 0x60, 0x5f, 0xc3, 0xed, 0xa8, 0x91, 0xa8, 0xec, 0x49, 0xfa,
  0xd1, 0x54, 0xa6, 0xb1, 0xe9, 0xbc, 0x43, 0x4f, 0xbd, 0xaf, 0xfe, 0xa0,
  0x23, 0xb2, 0x5f, 0xc1, 0xdb, 0xf5, 0xc1, 0xc2, 0xa8, 0x19, 0x50, 0xe0,
  0xa2, 0x5c, 0xef, 0x9e, 0x19, 0x1a, 0xa6, 0xb3, 0x72, 0xd5, 0xa3, 0x44,
  0xd2, 0x0c, 0x5a, 0x0f, 0xd5, 0x41, 0xd9, 0xa7, 0x9d, 0x6d, 0xd1, 0x34,
  0x8c, 0x9d, 0x4a, 0x6a, 0xe8, 0xfe, 0x42, 0x59, 0xe6, 0xa7, 0xb7, 0x62,
  0x5d, 0xfa, 0x0a, 0x86, 0x32, 0x8d, 0x05, 0xb5, 0x5c, 0x1d, 0x6d, 0xf9,
  0x49, 0xa3, 0x40, 0xe5, 0x00, 0xd3, 0xe4, 0xec, 0x1e, 0xe0, 0x53, 0xc1,
  0x88, 0x35, 0x57, 0x2e, 0x07, 0x47, 0xa4, 0x1b, 0xeb, 0xa1, 0x51, 0x4c,
  0x36, 0x46, 0xc3, 0xa7, 0x4a, 0xb9, 0x4f, 0xc6, 0x20, 0xb1, 0x08, 0x56,
  0xb1, 0x56, 0xd8, 0x42, 0xe9, 0xaa, 0xc2, 0xe2, 0xec, 0xce, 0x01, 0x90,
  0x98, 0x58, 0xd1, 0x1e, 0x5b, 0xdc, 0xef, 0xee, 0x54, 0xd1, 0xbc, 0x1d,
  0x40, 0x0b, 0x06, 0x37, 0x25, 0xb8, 0x11, 0x49, 0xff, 0xf6, 0xc8, 0x45,
  0x64, 0xbd, 0x56, 0xd1, 0x48, 0x28, 0x7f, 0x08, 0x5c, 0x52, 0x7a, 0x2c,
  0x9e, 0x1e, 0x62, 0xe5, 0x9c, 0x78, 0x5b, 0xd1, 0xfb, 0x37, 0xf0, 0x21,
  0xb0, 0xc9, 0xd3, 0x08, 0xf1, 0xc2, 0x13, 0x63, 0x4b, 0xcb, 0x27, 0x0b,
  0x5a, 0xce, 0x1f, 0x5d, 0x56, 0xd6, 0xbc, 0xb2, 0xc3, 0x17, 0xfd, 0x44,
  0x50, 0xad, 0x48, 0x42, 0xa4, 0x99, 0x8c, 0x5c, 0xd3, 0x10, 0x24, 0x93,
  0x69, 0x23, 0xbf, 0xc5, 0x66, 0x1f, 0x08, 0x8f, 0xe5, 0xbe, 0x96, 0xd3,
  0x40, 0x08, 0x53, 0x06, 0x54, 0x53, 0xcb, 0x96, 0x66, 0x0d, 0xa3, 0x4c,
  0x0b, 0x39, 0x0e, 0x56, 0x48, 0xfb, 0x6f, 0x6c, 0xa8, 0x17, 0xfc, 0xe6,
  0xcf, 0xa5, 0x88, 0x5a, 0x50, 0xe0, 0x14, 0x16, 0x2b, 0x29, 0xe3, 0x5a,
  0x61, 0xda, 0xbf, 0x4e, 0xcd, 0xf0, 0xbc, 0x4c, 0x25, 0x06, 0xc2, 0x43,
  0xfd, 0x54, 0x95, 0x86, 0xe0, 0x05, 0x00, 0x81, 0x97, 0x33, 0x21, 0xf5,
  0xa1, 0xcc, 0x0e, 0xd5, 0x1e, 0x8f, 0xdd, 0x82, 0x98, 0x17, 0xab, 0x23,
  0x46, 0xca, 0x55, 0xec, 0x97, 0xd7, 0x69, 0x6a, 0xb0, 0x09, 0x50, 0x99,
  0xfa, 0xb9, 0x14, 0xd3, 0x98, 0x12, 0xdb, 0x59, 0x68, 0xb8, 0xa8, 0x68,
  0xdc, 0xd5, 0xc8, 0x67, 0x0b, 0xe1, 0xda, 0x62, 0x24, 0x1c, 0x18, 0xb4,
  0x57, 0xd6, 0xd5, 0x68, 0x31, 0xc4, 0xeb, 0xe5, 0xd8, 0x46, 0x61, 0x92,
  0xae, 0x11, 0x98, 0xc2, 0x36, 0xde, 0x4e, 0x4d, 0xfb, 0x62, 0xb4, 0x4e,
  0xe8, 0x44, 0x39, 0x8f, 0x6e, 0x6a, 0x5c, 0xaf, 0xba, 0x92, 0x31, 0x69,
  0x63, 0x28, 0xd5, 0x0e, 0x62, 0xa6, 0x55, 0xeb, 0x35, 0xbb, 0x90, 0x67,
  0xef, 0xd6, 0xf5, 0xd6, 0xcc, 0xd6, 0x69, 0xd0, 0xcd, 0x10, 0x7d, 0xe8,
  0x30, 0xfd, 0x37, 0x55, 0x38, 0xdd, 0xee, 0xba, 0xda, 0xe3, 0x13, 0x41,
  0x6a, 0x19, 0x23, 0xe4, 0xf4, 0xff, 0xe4, 0x50, 0x36, 0xb2, 0x4a, 0xbe,
  0x42, 0x7f, 0x1e, 0xe8, 0x3b, 0xd0, 0x18, 0x77, 0x39, 0x10, 0xaa, 0x27,
  0xa6, 0x25, 0x6d, 0x74, 0x03, 0x6d, 0x6f, 0x5c, 0x36, 0x00, 0xef, 0x55,
  0x14, 0x41, 0x7d, 0xdc, 0x58, 0x24, 0xa9, 0xbc, 0xc4, 0xf8, 0x0f, 0x73,
  0xa4, 0xe4, 0xcd, 0x55, 0x58, 0x26, 0x6d, 0x23, 0x40, 0x81, 0xa4, 0xe0,
  0x32, 0x9b, 0x99, 0x1d, 0xb7, 0xd2, 0xc6, 0x83, 0xf0, 0xd6, 0xc4, 0x2c,
  0x29, 0x8b, 0xdd, 0xd0, 0x4b, 0x1f, 0xb5, 0x16, 0x6b, 0x7a, 0x82, 0x0e,
  0x11, 0xa6, 0x75, 0x98, 0x4e, 0x8f, 0xa8, 0xa9, 0x9b, 0x23, 0xc5, 0x12,
  0xca, 0xd1, 0xe7, 0xa9, 0x09, 0xa4, 0x6e, 0xb0, 0x95, 0xf7, 0xb8, 0x2c,
  0xc3, 0xbc, 0xd7, 0x54, 0x9d, 0xa3, 0xdb, 0x82, 0xcb, 0x20, 0xec, 0xb1,
  0xd5, 0x5c, 0x2f, 0x38, 0x0e, 0xdc, 0x82, 0x68, 0xd5, 0xa3, 0xf7, 0xdd,
  0xc3, 0xe0, 0xfe, 0x14, 0x07, 0x64, 0x2f, 0x0b, 0xba, 0x58, 0xe2, 0xfe,
  0x30, 0x89, 0xf2, 0x9d, 0xdc, 0x82, 0xf8, 0x0c, 0x50, 0xaf, 0xec, 0xb0,
  0x84, 0x2c, 0xdf, 0x5c, 0x3a, 0x5f, 0x25, 0x4a, 0x2f, 0xf0, 0x40, 0x73,
  0x28, 0x34, 0x03, 0xe7, 0xd8, 0x3c, 0x4b, 0x9b, 0x2d, 0xe9, 0x95, 0x42,
  0xec, 0x46, 0xcb, 0x84, 0x2d, 0xf7, 0x59, 0x7d, 0xb1, 0x12, 0xf2, 0xd5,
  0xb8, 0xbb, 0x02, 0x62, 0xea, 0xda, 0xb3, 0x71, 0xee, 0x89, 0xbf, 0xa7,
  0x49, 0x01, 0x2a, 0x6a, 0xa1, 0xba, 0x4b, 0x54, 0x4d, 0x24, 0xc1, 0xba,
  0x63, 0x3f, 0xbe, 0xfd, 0x86, 0xa2, 0x9d, 0xde, 0x7d, 0x23, 0xb4, 0x0e,
  0xf4, 0x98, 0x32, 0x60, 0x0e, 0x12, 0xa2, 0xfb, 0x1c, 0x38, 0x7f, 0xc7,
  0x19, 0xd6, 0x7f, 0x8d, 0x3e, 0x47, 0x6b, 0x8e, 0x69, 0x6a, 0x38, 0xda,
  0xee, 0x2a, 0x9f, 0x15, 0x7e, 0x12, 0x55, 0xd5, 0xc7, 0xb9, 0xb0, 0x62,
  0x02, 0x9f, 0xb8, 0xfa, 0x72, 0x94, 0xa1, 0x12, 0xe9, 0xb2, 0x09, 0xce,
  0x57, 0xc4, 0xda, 0x81, 0x4e, 0x7b, 0x92, 0xe0, 0xec, 0x14, 0x4a, 0xcd,
  0x4f, 0x8c, 0xd8, 0x0e, 0x7e, 0x4b, 0x1f, 0x37, 0xde, 0x87, 0x2f, 0xd5,
  0x9d, 0x71, 0xb5, 0xcb, 0x72, 0x8f, 0x51, 0x47, 0x4e, 0x8e, 0x45, 0x21,
  0xbb, 0x90, 0xee, 0x95, 0xbc, 0xe1, 0x93, 0x53, 0x4b, 0x78, 0x30, 0x0b,
  0x90, 0xea, 0xae, 0x02, 0x04, 0xa2, 0xa2, 0xeb, 0xda, 0xed, 0xf7, 0x2b,
  0x8e, 0xb3, 0x92, 0xbe, 0xf6, 0xce, 0x68, 0xe2, 0xa3, 0x18, 0x8a, 0x37,
  0xca, 0xe0, 0x4d, 0xa5, 0x91, 0x3c, 0x7d, 0x35, 0xee, 0xb9, 0xef, 0x5b,
  0x0d, 0x1e, 0xd7, 0x0d, 0xb2, 0xb1, 0x6b, 0x4e, 0x84, 0x76, 0x9b, 0xc7,
  0x44, 0x90, 0x8a, 0x04, 0x5f, 0xab, 0xf6, 0x8e, 0xc5, 0x16, 0x2b, 0x41,
  0x84, 0x55, 0x39, 0x5f, 0xf7, 0xb4, 0xba, 0xe2, 0xa5, 0xd0, 0xa3, 0x3d,
  0x9e, 0xff, 0x26, 0x8f, 0x60, 0xf2, 0xdb, 0xb8, 0x09, 0x92, 0x56, 0x68,
  0x9b, 0x1b, 0x7f, 0x26, 0x65, 0x7d, 0x86, 0x08, 0x39, 0x07, 0xd2, 0x9e,
  0x2b, 0xa7, 0x33, 0x7f, 0xab, 0x1c, 0x7b, 0x36, 0xf9, 0x44, 0x6b, 0xed,
  0xa1, 0xfe, 0xe5, 0xd4, 0xcc, 0x59, 0x38, 0x98, 0x79, 0xe0, 0xae, 0x37,
  0x24, 0x3e, 0x4d, 0x52, 0x21, 0x07, 0x01, 0x41, 0x8e, 0xfa, 0x91, 0x86,
  0x43, 0xd5, 0x50, 0xca, 0x66, 0x26, 0x84, 0x37, 0xcc, 0xf4, 0x81, 0xd2,
  0xc2, 0x44, 0x0c, 0x85, 0xa0, 0xcc, 0x0d, 0xee, 0x5b, 0x79, 0x4c, 0x48,
  0x55, 0xe4, 0x9f, 0xd8, 0xc6, 0x1e, 0xfd, 0x0e, 0x21, 0xec, 0xf8, 0xa0,
  0x02, 0x6c, 0x93, 0xe6, 0xdc, 0xb2, 0x6a, 0x2c, 0x79, 0x53, 0x08, 0xae,
  0xe9, 0x31, 0xe8, 0x1c, 0x5a, 0x03, 0xc7, 0x2b, 0x07, 0x52, 0xf5, 0x31,
  0xdc, 0xda, 0x0c, 0x5b, 0xc9, 0xc3, 0xb7, 0x73, 0xb3, 0xe1, 0x1e, 0x15,
  0xc3, 0xae, 0x43, 0xa9, 0x14, 0x19, 0x58, 0x77, 0x16, 0xda, 0x22, 0xd2,
  0xbb, 0x97, 0xa0, 0xbd, 0x4e, 0x5e, 0x9c, 0xe3, 0xf9, 0x54, 0x9f, 0x52,
  0x51, 0x38, 0x96, 0x6c, 0x38, 0x34, 0x1e, 0x16, 0x5c, 0x20, 0x87, 0x3d,
  0xc7, 0x39, 0x44, 0xfa, 0x23, 0xb0, 0x0d, 0x81, 0xf1, 0x42, 0x8e, 0x43,
  0xcb, 0x93, 0x37, 0xcd, 0xe4, 0x36, 0x0d, 0xb5, 0xf6, 0xdc, 0xf5, 0x05,
  0x73, 0x2a, 0x7f, 0x78, 0x9e, 0x1b, 0xba, 0xf8, 0x9c, 0x9c, 0xc9, 0xd3,
  0x10, 0x18, 0xeb, 0x4d, 0xb6, 0xcf, 0x63, 0x6f, 0x12, 0x8b, 0x4e, 0x0f,
  0x1b, 0x37, 0x98, 0x34, 0x42, 0x45, 0xd6, 0x5b, 0x65, 0x90, 0x9a, 0x85,
  0x08, 0xfb, 0xd2, 0x5f, 0x3f, 0x46, 0x10, 0x2b, 0x4e, 0x14, 0xc8, 0xf0,
  0x4a, 0xcb, 0xc1, 0x4a, 0x8e, 0xe1, 0xc0, 0x8c, 0xee, 0xd6, 0xb8, 0xc6,
  0x72, 0xda, 0x5d, 0xee, 0x63, 0xb5, 0x99, 0x46, 0xd2, 0x9d, 0xdd, 0x23,
  0x25, 0x19, 0x7e, 0xa5, 0x87, 0x54, 0x14, 0x64, 0x35, 0x9a, 0x3e, 0x27,
  0x47, 0xee, 0xfb, 0xbe, 0x61, 0xa8, 0x3f, 0x00, 0xa1, 0xe7, 0xad, 0x25,
  0x75, 0x6c, 0x2f, 0x9c, 0xab, 0x8b, 0x94, 0x4e, 0xea, 0x1d, 0x96, 0xd6,
  0x0d, 0xf9, 0xfd, 0xd4, 0x5f, 0x83, 0x9e, 0x6b, 0xf9, 0x5d, 0xc6, 0x3f,
  0x3f, 0x68, 0x87, 0x36, 0x2c, 0xf5, 0xc3, 0xe2, 0x61, 0x65, 0xc6, 0x55,
  0x72, 0x8d, 0x9a, 0xa6, 0xa8, 0xca, 0xdf, 0xb5, 0x11, 0x32, 0x56, 0x9e,
  0xc5, 0x4a, 0xb1, 0xe8, 0x1e, 0x3b, 0x64, 0xf5, 0xdb, 0xdf, 0x37, 0x17,
  0xab, 0xa7, 0x0f, 0xb3, 0x2f, 0xac, 0x4e, 0xda, 0x2a, 0x93, 0x73, 0x54,
  0xbc, 0x8e, 0xd8, 0x51, 0x04, 0xf0, 0x5e, 0x07, 0xa1, 0xdf, 0x0f, 0x03,
  0x3c, 0x70, 0x23, 0x35, 0x3a, 0xec, 0x07, 0x81, 0x09, 0x53, 0x57, 0x86,
  0x9c, 0xfe, 0x33, 0xc2, 0x6f, 0x60, 0x94, 0x05, 0x48, 0x73, 0xfb, 0x12,
  0xc0, 0xbf, 0xe0, 0xe3, 0x5c, 0x09, 0xcf, 0x96, 0xed, 0x42, 0xcd, 0x99,
  0xea, 0xcc, 0x59, 0x4e, 0xb0, 0x15, 0x7a, 0x09, 0x5a, 0xc2, 0x8c, 0x12,
  0xe0, 0x43, 0x1a, 0xb2, 0x71, 0x49, 0x21, 0x07, 0xfd, 0x91, 0x00, 0xae,
  0x18, 0xf9, 0x47, 0xb4, 0x81, 0x81, 0x82, 0xab, 0xd2, 0x75, 0x43, 0xe9,
  0xa8, 0xc5, 0xfe, 0x9e, 0x69, 0x4e, 0xbd, 0x37, 0x6b, 0x88, 0xd0, 0x06,
  0x84, 0x6a, 0x67, 0x5f, 0x40, 0xd1, 0x06, 0xc6, 0xf4, 0x30, 0xc3, 0x86,
  0xd5, 0x90, 0xbe, 0xda, 0x26, 0x2f, 0xd9, 0xe4, 0x5f, 0xf3, 0x54, 0x1c,
  0x38, 0x46, 0xcf, 0xca, 0xa6, 0x16, 0xdf, 0x74, 0x0e, 0x05, 0x6a, 0xe1,
  0x2b, 0xa8, 0x70, 0x19, 0x46, 0x5b, 0xc1, 0x6e, 0x87, 0xc9, 0x8c, 0x15,
  0x75, 0x0a, 0xa1, 0x0f, 0x19, 0x96, 0xca, 0x2a, 0x43, 0xd6, 0x3e, 0x44,
  0x56, 0xe4, 0x60, 0xf4, 0xc4, 0x12, 0xb2, 0x8c, 0x19, 0x57, 0xf0, 0xea,
  0x73, 0x48, 0xea, 0x24, 0xb1, 0xb7, 0xae, 0x3c, 0xce, 0x9e, 0x70, 0xb8,
  0xcd, 0x3d, 0xd5, 0x4a, 0x47, 0x40, 0xb7, 0x70, 0x89, 0x29, 0xdb, 0xc5,
  0x98, 0x4b, 0x9c, 0xbc, 0x71, 0xd6, 0xcd, 0xd4, 0x3a, 0x6c, 0xc5, 0x7f,
  0x1e, 0x2d, 0x48, 0xa8, 0x3a, 0xc9, 0x14, 0x6f, 0xbf, 0xc2, 0xbc, 0x57,
  0x74, 0x31, 0x5e, 0xb9, 0xe0, 0xfb, 0xf3, 0xc5, 0x49, 0x15, 0x8f, 0xde,
  0x64, 0x92, 0x25, 0xbc, 0x49, 0x18, 0x62, 0xb5, 0x99, 0xbf, 0x79, 0x8d,
  0xcd, 0x8b, 0x9e, 0x48, 0x62, 0x58, 0x2c, 0xe9, 0x84, 0xc9, 0x64, 0x6d,
  0x84, 0x9a, 0xce, 0x5a, 0x67, 0x88, 0xef, 0x02, 0x39, 0x05, 0x01, 0xe7,
  0xa3, 0x7c, 0xd8, 0x33, 0xc1, 0x37, 0x81, 0x3d, 0x94, 0xf2, 0x5c, 0xd9,
  0x3e, 0xb7, 0x78, 0x99, 0xfc, 0x64, 0x25, 0x44, 0x1e, 0xdf, 0xde, 0xf1,
  0xb5, 0x7e, 0x50, 0xa2, 0x03, 0x85, 0xb5, 0xb8, 0x55, 0x74, 0xea, 0x18,
  0xc2, 0x16, 0x75, 0x42, 0xd3, 0x6d, 0x43, 0x88, 0xff, 0x8d, 0xc4, 0xf3,
  0x7e, 0xa9, 0xd8, 0x87, 0x0a, 0xf7, 0xff, 0xff, 0x04, 0x00, 0x00, 0x00,
  0x80, 0x00, 0x00, 0x00, 0x00, 0x00, 0x00, 0x00, 0x8a, 0x4c, 0x22, 0x3c,
  0x00, 0x00, 0x00, 0x00, 0xb7, 0x87, 0xc0, 0x3a, 0x00, 0x00, 0x00, 0x00,
  0x00, 0x00, 0x00, 0x00, 0x8d, 0xb6, 0xe6, 0xb9, 0x00, 0x00, 0x00, 0x00,
  0x35, 0xb0, 0x14, 0xbc, 0x33, 0xa0, 0x94, 0x3b, 0xa3, 0x13, 0x99, 0xbb,
  0xce, 0xa5, 0xd6, 0x3a, 0x00, 0x00, 0x00, 0x00, 0x00, 0x00, 0x00, 0x00,
  0x00, 0x00, 0x00, 0x00, 0x00, 0x00, 0x00, 0x00, 0x00, 0x00, 0x00, 0x00,
  0x76, 0x3a, 0x1b, 0xbc, 0x00, 0x00, 0x00, 0x00, 0x4b, 0xf1, 0xdb, 0x3b,
  0xca, 0x49, 0x36, 0x3c, 0x63, 0x71, 0x8c, 0x3a, 0xe3, 0x05, 0x11, 0xbb,
  0xf1, 0x08, 0x20, 0x3c, 0x00, 0x00, 0x00, 0x00, 0x00, 0x00, 0x00, 0x00,
  0x00, 0x00, 0x00, 0x00, 0x65, 0xb6, 0x70, 0xbb, 0x00, 0x00, 0x00, 0x00,
  0x2a, 0x2f, 0x0a, 0xbc, 0x91, 0xa0, 0x03, 0xbc, 0x00, 0x00, 0x00, 0x00,
  0x96, 0xf7, 0xff, 0xff, 0x04, 0x00, 0x00, 0x00, 0x40, 0x00, 0x00, 0x00,
  0xb7, 0x3c, 0x65, 0xbc, 0xaa, 0xcd, 0x90, 0x3b, 0x00, 0x00, 0x00, 0x00,
  0x2d, 0x34, 0xa2, 0xbb, 0x37, 0x5b, 0xbf, 0xbb, 0x13, 0x97, 0x52, 0x3c,
  0x1b, 0x3a, 0x7e, 0xbb, 0x32, 0x09, 0x05, 0xbc, 0xb4, 0x94, 0x77, 0x3b,
  0x4e, 0x09, 0x36, 0xbc, 0xd9, 0x9f, 0x86, 0x3b, 0xa3, 0x3b, 0x56, 0x3b,
  0x2a, 0x87, 0x12, 0xbc, 0x00, 0x00, 0x00, 0x00, 0x65, 0x46, 0xcd, 0x3a,
  0x3c, 0x7a, 0x52, 0xbc, 0xe2, 0xf7, 0xff, 0xff, 0x04, 0x00, 0x00, 0x00,
  0x04, 0x00, 0x00, 0x00, 0x81, 0x69, 0x7c, 0xbb, 0xf2, 0xf7, 0xff, 0xff,
  0x04, 0x00, 0x00, 0x00, 0x00, 0x08, 0x00, 0x00, 0xf0, 0x37, 0xd9, 0x3d,
  0xd7, 0x4f, 0x2b, 0x3e, 0xe7, 0xc2, 0x94, 0xbe, 0x6c, 0x53, 0xa7, 0xbe,
  0x34, 0x40, 0xb7, 0xbd, 0x50, 0xae, 0xc7, 0xbc, 0x37, 0x1a, 0xf3, 0x3d,
  0x4d, 0xdd, 0x5f, 0xbe, 0x76, 0xd2, 0x81, 0xbc, 0x48, 0x59, 0x9e, 0x3e,
  0x81, 0x13, 0x27, 0xbe, 0x63, 0xdc, 0x42, 0xbe, 0x66, 0x76, 0x97, 0xbe,
  0x58, 0x0d, 0x1f, 0xbd, 0xe0, 0xef, 0xae, 0x3c, 0xa8, 0xed, 0x0b, 0x3e,
  0x98, 0x9d, 0x45, 0x3d, 0xe2, 0x24, 0xb6, 0xbe, 0xc6, 0x9d, 0x32, 0x3e,
  0xb8, 0x02, 0x1d, 0xbd, 0x8d, 0xaa, 0x15, 0x3e, 0xb9, 0x8a, 0x8b, 0x3d,
  0x62, 0x57, 0xc5, 0xba, 0x2a, 0xa0, 0x1c, 0x3e, 0x53, 0x4f, 0x9d, 0x3e,
  0x1e, 0xc0, 0x86, 0xbe, 0x01, 0x24, 0x12, 0xbe, 0x46, 0xe8, 0xae, 0x3d,
  0x8a, 0xd6, 0x75, 0x3e, 0xf0, 0x32, 0x94, 0xbe, 0xed, 0x41, 0x86, 0x3e,
  0x47, 0x1e, 0x98, 0x3e, 0xf1, 0x58, 0x4e, 0xbe, 0x70, 0xe7, 0x92, 0x3d,
  0xf3, 0x0d, 0x88, 0x3e, 0x44, 0xcf, 0xa1, 0x3e, 0xc0, 0x96, 0x77, 0xbe,
  0x5e, 0xd1, 0x79, 0x3e, 0x5d, 0xb8, 0x27, 0x3e, 0x6e, 0x43, 0x79, 0x3e,
  0x3c, 0xea, 0xaf, 0xbe, 0x95, 0x5c, 0xb5, 0xbe, 0xeb, 0xf0, 0x8b, 0x3e,
  0xec, 0x71, 0x0e, 0x3e, 0xfd, 0x21, 0x82, 0x3e, 0x95, 0x86, 0x82, 0x3e,
  0x3e, 0x8c, 0x80, 0xbe, 0x39, 0xf6, 0x0c, 0xbe, 0xe2, 0xf8, 0x7f, 0x3e,
  0x3f, 0xb5, 0x7e, 0xbd, 0xa4, 0x08, 0xd6, 0x3d, 0xde, 0xfa, 0x64, 0xbd,
  0xee, 0x7c, 0xa6, 0xbe, 0xae, 0xf9, 0xa6, 0x3e, 0x35, 0x01, 0x88, 0x3e,
  0x97, 0x93, 0x85, 0xbe, 0x40, 0x27, 0x26, 0x3c, 0xa2, 0x8b, 0xae, 0xbe,
  0xe6, 0xd4, 0xac, 0xbe, 0x9b, 0x37, 0xb2, 0x3e, 0x58, 0x25, 0xfc, 0x3d,
  0xec, 0x59, 0xbc, 0x3d, 0x59, 0x78, 0x08, 0xbe, 0xd8, 0xcc, 0x09, 0x3d,
  0x27, 0xbf, 0x9f, 0x3e, 0xe8, 0x4b, 0xce, 0xbd, 0x7e, 0x0f, 0x38, 0x3e,
  0x9a, 0x0a, 0x2c, 0x3e, 0xb4, 0x8e, 0xcf, 0xbd, 0xe1, 0x30, 0x74, 0xbe,
  0x00, 0xa9, 0xa7, 0x3a, 0x5f, 0x0a, 0xa5, 0xbe, 0x20, 0xa0, 0x4f, 0xbc,
  0x91, 0xe4, 0xa1, 0xbe, 0x5a, 0x58, 0x5f, 0x3e, 0x0e, 0xee, 0x6c, 0x3e,
  0xe6, 0x79, 0x6e, 0xbe, 0xfa, 0xa5, 0x6b, 0x3e, 0xb0, 0x66, 0x88, 0xbc,
  0x25, 0x8a, 0x10, 0xbe, 0xe4, 0xa3, 0xbe, 0x3d, 0x86, 0x99, 0x6d, 0xbe,
  0x6f, 0xdc, 0x71, 0xbe, 0x19, 0x64, 0x31, 0xbe, 0x37, 0xf1, 0xac, 0xbe,
  0xae, 0xfa, 0x55, 0x3e, 0xec, 0x9b, 0x89, 0xbd, 0x3f, 0xf6, 0x29, 0xbe,
  0x40, 0x33, 0x5e, 0xbe, 0x90, 0xb9, 0x34, 0xbd, 0x38, 0xa1, 0x32, 0x3d,
  0xc9, 0x73, 0x96, 0xbe, 0xc6, 0xe5, 0xea, 0xbd, 0xda, 0x2d, 0x6f, 0x3e,
  0x22, 0x9e, 0xb4, 0xbe, 0xb2, 0xbe, 0x8d, 0xbe, 0xfb, 0x46, 0x56, 0xbe,
  0x50, 0xbb, 0x38, 0x3e, 0xf8, 0x5d, 0x00, 0x3e, 0x06, 0x2a, 0x06, 0xbe,
  0x18, 0xf2, 0x9a, 0xbe, 0x43, 0x11, 0x38, 0xbe, 0xba, 0x3c, 0x8a, 0x3e,
  0xd0, 0x51, 0x91, 0xbd, 0x9f, 0x80, 0xb2, 0xbd, 0x17, 0xff, 0x1d, 0xbd,
  0x56, 0x4b, 0x17, 0x3e, 0x66, 0x33, 0xde, 0xbd, 0x63, 0x01, 0xa5, 0xbe,
  0x82, 0x00, 0x95, 0xbe, 0x90, 0x6e, 0x90, 0xbd, 0xbe, 0x71, 0x21, 0x3e,
  0x40, 0xc3, 0x4b, 0xbc, 0x7b, 0xe4, 0x3b, 0x3e, 0x53, 0x0a, 0x96, 0x3e,
  0xb7, 0x41, 0xdb, 0x3d, 0x85, 0x33, 0xf8, 0x3c, 0x2c, 0xf4, 0x9e, 0x3e,
  0xe7, 0x48, 0xa0, 0x3c, 0xc0, 0xe4, 0xe0, 0xbd, 0xaf, 0x94, 0x2e, 0xbe,
  0x46, 0x1a, 0x31, 0x3e, 0x98, 0x0b, 0xff, 0x3d, 0x99, 0xb4, 0x8a, 0xbe,
  0xd4, 0x0c, 0xea, 0x3d, 0xf6, 0xeb, 0xc4, 0xbd, 0x1a, 0x4f, 0xde, 0x3d,
  0x92, 0x84, 0x6f, 0x3e, 0xb0, 0x7e, 0xde, 0xbd, 0x78, 0x80, 0x6e, 0x3d,
  0x0e, 0xb0, 0x62, 0x3e, 0x41, 0xaf, 0x6e, 0x3a, 0x3c, 0xc9, 0xd8, 0xbd,
  0xcb, 0xa2, 0xb0, 0x3e, 0xcb, 0x11, 0x36, 0xbe, 0x11, 0xfc, 0x8c, 0xbe,
  0xaf, 0x88, 0x40, 0xbd, 0x35, 0x7a, 0xed, 0x3d, 0x5f, 0xed, 0xcc, 0xbd,
  0x4c, 0x6c, 0x14, 0x3e, 0x20, 0x69, 0xde, 0x3d, 0x2c, 0xf2, 0xe6, 0x3d,
  0x00, 0x54, 0xd2, 0xbb, 0x0e, 0x9f, 0x38, 0x3e, 0x30, 0x95, 0xaa, 0x3d,
  0xed, 0x76, 0x9e, 0x3e, 0xc0, 0x22, 0x16, 0xbc, 0x9b, 0xc5, 0x8c, 0x3b,
  0x0d, 0x33, 0x8d, 0x3e, 0xf2, 0xf5, 0xa1, 0x3d, 0xe4, 0xfe, 0x5c, 0x3e,
  0x20, 0x34, 0xc2, 0xbd, 0x8a, 0xef, 0x23, 0xbe, 0x22, 0xfa, 0x44, 0x3e,
  0x38, 0xc9, 0x8e, 0xbd, 0xd1, 0x57, 0x93, 0x3e, 0x7e, 0x53, 0x50, 0x3e,
  0x8d, 0xb6, 0xa5, 0xbe, 0x6f, 0xbc, 0x01, 0xbd, 0x67, 0x74, 0xa9, 0x3e,
  0x9a, 0x35, 0x84, 0xbe, 0xde, 0x5b, 0x9a, 0x3e, 0x9c, 0x6b, 0x85, 0xbe,
  0xca, 0xe0, 0x72, 0xbe, 0x88, 0xb3, 0xea, 0x3d, 0x83, 0xff, 0xb2, 0xbe,
  0xcc, 0x52, 0x87, 0xbe, 0x3e, 0xb9, 0xb0, 0xbe, 0x00, 0xc5, 0xd7, 0x3b,
  0xd7, 0xb3, 0x84, 0x3e, 0xdf, 0x61, 0x8b, 0xbd, 0x66, 0x6e, 0x01, 0x3e,
  0xfd, 0xbe, 0x97, 0xbe, 0xaa, 0xf0, 0x7c, 0x3e, 0x30, 0x4a, 0x21, 0xbd,
  0x03, 0x0c, 0x26, 0xbe, 0xc5, 0xfe, 0x82, 0x3e, 0xc8, 0xc8, 0x89, 0xbd,
  0x10, 0x17, 0xa3, 0xbe, 0x17, 0x5b, 0xf9, 0x3c, 0x6d, 0x1d, 0x9c, 0xbd,
  0x85, 0xce, 0x97, 0x3e, 0x45, 0xf3, 0x07, 0xbe, 0xa6, 0x61, 0x6e, 0x3e,
  0x6b, 0xd0, 0x98, 0xbe, 0xb8, 0x4c, 0xd2, 0xbd, 0x83, 0xa9, 0x97, 0x3e,
  0xdf, 0x3a, 0x34, 0xbe, 0xcf, 0xe9, 0xa9, 0x3e, 0x81, 0xf1, 0x1b, 0x3e,
  0x93, 0xfa, 0x87, 0xbe, 0xe7, 0x02, 0x83, 0xbe, 0x2d, 0x98, 0xa9, 0x3e,
  0x9b, 0xd7, 0x1a, 0x3e, 0x1c, 0xac, 0x81, 0xbe, 0xaf, 0xf8, 0x1a, 0x3e,
  0x9c, 0xb9, 0xa7, 0xbe, 0x5d, 0x61, 0x9d, 0xbe, 0xf3, 0x76, 0x0a, 0xbe,
  0xe7, 0xb4, 0xb4, 0x3e, 0xbc, 0xfe, 0x24, 0x3e, 0x34, 0x64, 0xff, 0x3d,
  0xad, 0xfa, 0xfe, 0x3d, 0xcb, 0x34, 0xa0, 0xbd, 0x75, 0x0b, 0x11, 0xbe,
  0xbe, 0xd9, 0x31, 0x3e, 0xb8, 0x7d, 0x7b, 0x3d, 0xca, 0x5d, 0x7f, 0x3e,
  0xa2, 0x59, 0x27, 0xbe, 0x82, 0x01, 0x92, 0x3e, 0xdc, 0x78, 0x3b, 0xbe,
  0xeb, 0x52, 0xb8, 0xbe, 0x4a, 0x0c, 0xaa, 0xbd, 0xae, 0x81, 0x81, 0x3e,
  0x18, 0x0d, 0x52, 0xbc, 0x78, 0x5d, 0x85, 0x3e, 0x65, 0xd9, 0xb4, 0xbe,
  0x98, 0xa6, 0xe3, 0xbd, 0xb9, 0xde, 0x92, 0xbe, 0x5c, 0xf1, 0x6f, 0x3e,
  0x7a, 0x44, 0x03, 0xbe, 0xe8, 0x54, 0xee, 0xbd, 0x47, 0xc5, 0x8a, 0xbd,
  0xb4, 0x2e, 0xd9, 0x3d, 0x9b, 0xd4, 0x96, 0x3e, 0x75, 0x5d, 0xa8, 0xbe,
  0x1e, 0x45, 0x17, 0x3e, 0x25, 0x13, 0x33, 0x3e, 0x28, 0xfe, 0x3d, 0x3d,
  0x22, 0x28, 0x2d, 0x3e, 0x9d, 0x5c, 0xb8, 0xbd, 0x74, 0x6d, 0xac, 0xbd,
  0x22, 0xf2, 0x60, 0x3e, 0x11, 0x08, 0x2a, 0xbe, 0x85, 0xf0, 0x89, 0x3e,
  0xb3, 0x66, 0xff, 0x3d, 0x34, 0x6f, 0xae, 0x3d, 0xbf, 0xe0, 0x81, 0xbe,
  0x50, 0x09, 0xfe, 0x3d, 0x85, 0x02, 0x8f, 0x3e, 0x47, 0x2c, 0xa9, 0xbe,
  0xaf, 0x7f, 0xe0, 0x3d, 0xf6, 0xd8, 0x5d, 0x3e, 0x69, 0x81, 0xb2, 0xbe,
  0xff, 0xe0, 0xdf, 0xbd, 0x34, 0xd6, 0x6b, 0xbd, 0xa4, 0xab, 0x20, 0x3c,
  0x45, 0xd5, 0xad, 0xbe, 0x17, 0xd6, 0x7e, 0xbe, 0xb6, 0xa3, 0x75, 0xbe,
  0x89, 0xd0, 0xa7, 0xbe, 0xdf, 0x50, 0x12, 0x3e, 0x19, 0x12, 0x93, 0xbe,
  0x8c, 0xd1, 0xb4, 0x3d, 0x40, 0xaa, 0x88, 0x3c, 0x82, 0x05, 0x38, 0xbe,
  0xe8, 0x04, 0x44, 0x3d, 0x45, 0x91, 0xa2, 0x3e, 0xbb, 0x55, 0x84, 0x3e,
  0x48, 0x18, 0x4d, 0xbd, 0xc0, 0xaf, 0x29, 0xbc, 0x6a, 0x2e, 0x93, 0xbe,
  0x3c, 0x49, 0x88, 0x3e, 0xb0, 0x91, 0x54, 0x3d, 0xc4, 0x96, 0xf9, 0xbd,
  0x0c, 0x91, 0x67, 0xbe, 0xed, 0xe0, 0xf0, 0xbc, 0x79, 0x0c, 0x2a, 0xbe,
  0xff, 0xf6, 0xa7, 0xbe, 0x5e, 0x34, 0x31, 0x3e, 0x88, 0xea, 0xd7, 0x3d,
  0xac, 0xf3, 0xbc, 0x3d, 0x16, 0xef, 0xf9, 0xbd, 0xa6, 0xfe, 0x88, 0xbe,
  0x54, 0x01, 0xab, 0xbd, 0xe4, 0x33, 0x18, 0xbe, 0x6b, 0x65, 0x9a, 0x3e,
  0xaf, 0x80, 0x04, 0x3d, 0x85, 0x14, 0x7c, 0x3e, 0xba, 0xca, 0x9e, 0x3d,
  0x1e, 0xa8, 0x06, 0x3e, 0x99, 0x66, 0xa6, 0xbe, 0xef, 0xbd, 0x01, 0xbe,
  0x16, 0x91, 0xaf, 0xbe, 0x18, 0x00, 0xab, 0x3d, 0xce, 0x4b, 0xa1, 0xbe,
  0x7c, 0x9b, 0xdd, 0xbd, 0x10, 0xc0, 0x45, 0xbd, 0xf3, 0x38, 0x0a, 0xbe,
  0x38, 0xc6, 0x38, 0x3e, 0x98, 0xd8, 0x57, 0x3d, 0x0e, 0x76, 0x79, 0xbe,
  0xb5, 0x06, 0x88, 0x3e, 0x84, 0x6c, 0x94, 0xbd, 0xe9, 0xce, 0x91, 0x3e,
  0x1b, 0xd8, 0x8b, 0x3e, 0xfb, 0x9d, 0x16, 0xbe, 0x0e, 0x2f, 0x25, 0x3e,
  0xdc, 0x06, 0xd0, 0xbd, 0x12, 0x4a, 0x9c, 0xbe, 0xa4, 0xb0, 0x42, 0xbe,
  0x3c, 0x2f, 0xaa, 0xbd, 0x7a, 0xc8, 0x97, 0xbe, 0x86, 0xca, 0x4a, 0x3e,
  0xec, 0xa1, 0xe1, 0x3d, 0x88, 0x82, 0x02, 0x3e, 0x40, 0x65, 0x4a, 0xbd,
  0xbc, 0x39, 0xb6, 0xbc, 0x9d, 0x8c, 0x99, 0xbe, 0x79, 0x64, 0xe7, 0xbd,
  0x7c, 0x3e, 0xa3, 0xbe, 0xdc, 0x8f, 0x10, 0x3c, 0x3a, 0xaf, 0x03, 0xbe,
  0xf0, 0x85, 0xab, 0x3c, 0xd0, 0x74, 0xd7, 0x3c, 0xa7, 0xc3, 0x36, 0xbe,
  0xd7, 0x78, 0x15, 0xbe, 0x7c, 0x28, 0xbb, 0x3b, 0xa8, 0xed, 0xc4, 0x3d,
  0x48, 0x4c, 0x01, 0xbd, 0xae, 0x6d, 0x33, 0xbe, 0xb5, 0x54, 0x03, 0x3e,
  0xb0, 0x05, 0x34, 0xbd, 0xff, 0xc9, 0x83, 0x3e, 0xff, 0xc4, 0x97, 0x3e,
  0xef, 0x9b, 0x3a, 0xbe, 0x16, 0x34, 0x98, 0x3e, 0x34, 0xa1, 0x7b, 0xbe,
  0x3b, 0xb9, 0x44, 0x3e, 0xd5, 0xb3, 0x10, 0xbe, 0xfb, 0xfa, 0xa0, 0x3e,
  0xbb, 0xc6, 0xdf, 0x39, 0x9c, 0x2e, 0xe6, 0x3d, 0xc8, 0x55, 0x57, 0xbd,
  0x5b, 0x50, 0x98, 0x3e, 0x58, 0x7c, 0xb9, 0xbd, 0xba, 0x15, 0x16, 0x3e,
  0x83, 0xeb, 0xac, 0xbe, 0xf7, 0x4a, 0x80, 0xbe, 0x3e, 0x41, 0x7d, 0x3e,
  0xa1, 0xe0, 0x70, 0x3e, 0x67, 0x19, 0xb7, 0xbe, 0xb0, 0xa7, 0x6b, 0x3d,
  0xf0, 0xb2, 0x31, 0xbe, 0x20, 0x9b, 0x20, 0x3c, 0x28, 0x6d, 0x42, 0xbd,
  0x10, 0x05, 0x58, 0x3d, 0x6f, 0x38, 0x15, 0xbe, 0xd4, 0x43, 0x8d, 0xbd,
  0x4e, 0xb5, 0xa9, 0x3e, 0x80, 0x9e, 0x3d, 0xbc, 0x8e, 0x7e, 0x23, 0xbe,
  0x62, 0x9f, 0x18, 0xbe, 0x7f, 0x25, 0xb0, 0x3e, 0x63, 0xd2, 0xaf, 0x3e,
  0x22, 0x02, 0xa2, 0x3b, 0x54, 0x3c, 0x49, 0xbe, 0x08, 0x47, 0xf2, 0x3d,
  0xdf, 0xd5, 0x86, 0x3e, 0x40, 0x37, 0x33, 0x3c, 0x8f, 0xd8, 0x7a, 0xbb,
  0xfb, 0x7d, 0x3b, 0xbd, 0xbb, 0xc3, 0x2c, 0x3e, 0x41, 0x7d, 0x03, 0x3e,
  0x8e, 0x98, 0x4f, 0x3e, 0x84, 0xf2, 0xfd, 0x3d, 0x91, 0x62, 0xa1, 0x3e,
  0x90, 0x5a, 0xfa, 0x3d, 0x48, 0xed, 0x02, 0x3e, 0xc7, 0x83, 0x8c, 0x3d,
  0x33, 0xa7, 0xac, 0xbe, 0x02, 0x31, 0x41, 0x3e, 0x28, 0x58, 0xd7, 0xbc,
  0x01, 0x44, 0xcd, 0xbd, 0x94, 0x29, 0x30, 0x3e, 0x6e, 0x4e, 0x65, 0x3e,
  0x26, 0x0e, 0x70, 0x3e, 0x92, 0x78, 0x94, 0xbe, 0x09, 0x51, 0xac, 0x3e,
  0xdf, 0x4e, 0x4e, 0xbe, 0xa0, 0x15, 0x91, 0x3d, 0xdb, 0x4b, 0x9f, 0x3e,
  0x8a, 0xd6, 0x76, 0x3e, 0x72, 0xd2, 0x80, 0xbe, 0x60, 0xd8, 0x87, 0x3c,
  0x91, 0x25, 0x6c, 0x3b, 0xe2, 0x08, 0x45, 0x3e, 0x59, 0x19, 0xc9, 0xbd,
  0xc1, 0x03, 0x9a, 0xbe, 0x8c, 0xe7, 0x7e, 0xbe, 0x8b, 0x99, 0x2f, 0x3d,
  0x98, 0xfe, 0x51, 0xbd, 0x17, 0x00, 0x9e, 0xbd, 0x78, 0x31, 0x1c, 0xbe,
  0x7f, 0xca, 0xe2, 0xbd, 0x9a, 0x62, 0xa1, 0xbe, 0x38, 0x5f, 0x0a, 0x3d,
  0xee, 0xd0, 0x97, 0xbe, 0x23, 0xa0, 0x9e, 0x3e, 0x06, 0xdb, 0x5a, 0x3e,
  0x91, 0x4d, 0x94, 0x3e, 0x6b, 0x3a, 0x05, 0x3e, 0x80, 0xca, 0x69, 0x3d,
  0x68, 0x85, 0xdf, 0x3d, 0x2d, 0x14, 0x98, 0x3e, 0xa3, 0xab, 0x97, 0xbd,
  0xde, 0x3b, 0x1a, 0x3e, 0x25, 0x69, 0xa7, 0xbe, 0x08, 0x3c, 0x8a, 0xbe,
  0xe0, 0xd9, 0x45, 0xbd, 0xb8, 0x7c, 0x11, 0x3d, 0xd3, 0x95, 0x43, 0xbd,
  0x30, 0x19, 0x15, 0xbd, 0x32, 0x82, 0x5f, 0xbe, 0xe8, 0x39, 0x09, 0x3e,
  0xe8, 0x4e, 0x03, 0x3e, 0xd4, 0x50, 0x07, 0xbe, 0xa3, 0x4c, 0x34, 0xbe,
  0xf6, 0x73, 0x03, 0xbe, 0xdf, 0xc4, 0x7b, 0xbe, 0xaf, 0xe5, 0x99, 0x3e,
  0x54, 0x65, 0x19, 0xbe, 0x39, 0x8b, 0x91, 0xbe, 0x30, 0x63, 0x58, 0xbd,
  0x5a, 0x8b, 0x28, 0x3e, 0x12, 0x56, 0xa6, 0xbe, 0x40, 0xe0, 0x98, 0xbb,
  0xca, 0xf2, 0x3d, 0x3e, 0x97, 0x0b, 0x22, 0xbe, 0x98, 0x71, 0x7f, 0xbd,
  0xa4, 0x29, 0xe7, 0x3d, 0xa4, 0x24, 0x9e, 0x3d, 0x40, 0xd6, 0x1a, 0xbc,
  0xf9, 0x74, 0x11, 0xbe, 0x91, 0x98, 0x92, 0x3e, 0xfc, 0xe4, 0xbb, 0xbd,
  0x30, 0x9c, 0x91, 0x3c, 0xd3, 0xad, 0x91, 0x3e, 0x00, 0x29, 0x66, 0xbd,
  0xa0, 0x10, 0xee, 0x3c, 0xb0, 0x81, 0x5b, 0xbe, 0xde, 0xbf, 0x6c, 0xbe,
  0x07, 0x77, 0x15, 0xbe, 0x26, 0xef, 0xe5, 0xbd, 0x6a, 0x58, 0x46, 0x3e,
  0x87, 0x17, 0x71, 0xbe, 0xf8, 0x86, 0x13, 0x3e, 0xaa, 0x48, 0x16, 0x3e,
  0x85, 0xdc, 0xaf, 0x3e, 0xa0, 0x94, 0x93, 0x3e, 0x0f, 0xa2, 0xa6, 0x3e,
  0xff, 0x43, 0xab, 0xbe, 0x60, 0x39, 0x6c, 0x3d, 0xa0, 0x3a, 0xd7, 0x3c,
  0xe6, 0x73, 0x51, 0x3c, 0xae, 0xf5, 0xae, 0xbe, 0x68, 0x42, 0x9e, 0x3e,
  0x44, 0x8f, 0x78, 0x3e, 0xd9, 0x71, 0xaa, 0xbe, 0x21, 0xd3, 0x16, 0xbe,
  0x36, 0x1b, 0x38, 0x3e, 0xf6, 0x47, 0x65, 0x3e, 0xc0, 0x0a, 0xbb, 0x3d,
  0x46, 0x69, 0x3c, 0x3e, 0xe5, 0xad, 0xaf, 0x3e, 0x8b, 0x39, 0xae, 0x3d,
  0x90, 0x68, 0xa6, 0xbe, 0x08, 0x31, 0x85, 0xbe, 0xb9, 0x9a, 0x08, 0x3e,
  0x19, 0x83, 0x48, 0x3e, 0x6d, 0x3e, 0xa1, 0x3e, 0x89, 0xe3, 0x86, 0x3e,
  0xab, 0xfd, 0xaa, 0x3e, 0xfe, 0x77, 0x52, 0x3e, 0xc4, 0x41, 0xc8, 0xbd,
  0x7c, 0xa9, 0x32, 0xbe, 0xea, 0x94, 0x13, 0x3e, 0xc6, 0x54, 0xf2, 0x3c,
  0xe0, 0xa6, 0x89, 0x3e, 0x30, 0x85, 0x77, 0xbe, 0xc6, 0xc4, 0x56, 0x3e,
  0xb2, 0x6c, 0x50, 0x3d, 0x82, 0xce, 0x22, 0xbe, 0xcf, 0x78, 0x09, 0xbe,
  0x93, 0x97, 0x33, 0xbe, 0x7f, 0xa8, 0x38, 0xbe, 0xdb, 0x76, 0x05, 0xbe,
  0x14, 0x00, 0xc2, 0x3d, 0xef, 0x7e, 0x62, 0xbe, 0x1a, 0x4a, 0xa2, 0xbe,
  0xc0, 0xc8, 0xdf, 0x3c, 0xf3, 0x40, 0xac, 0xbe, 0xa1, 0x84, 0x45, 0xbe,
  0x88, 0x60, 0x21, 0xbd, 0x8e, 0xa0, 0x3a, 0x3e, 0x2b, 0x8f, 0x95, 0x3e,
  0x10, 0x76, 0x4c, 0x3d, 0xae, 0x1f, 0x7e, 0xbe, 0xe0, 0x8e, 0x88, 0xbd,
  0x71, 0xb8, 0xea, 0x3c, 0x7f, 0x78, 0x78, 0x3e, 0x36, 0x5c, 0x09, 0xbd,
  0xcd, 0xd5, 0x54, 0xbb, 0x49, 0x80, 0xa2, 0x3e, 0x7d, 0xfb, 0xaa, 0xbe,
  0x09, 0xf5, 0x8b, 0x3e, 0xa4, 0xe7, 0x53, 0xbe, 0xdc, 0x6b, 0xbb, 0x3d,
  0xa0, 0xba, 0x8a, 0x3c, 0x5f, 0xcd, 0xa2, 0xbd, 0xe4, 0x06, 0x78, 0xbc,
  0xb0, 0xa8, 0x68, 0xbe, 0x00, 0x00, 0x06, 0x00, 0x08, 0x00, 0x04, 0x00,
  0x06, 0x00, 0x00, 0x00, 0x04, 0x00, 0x00, 0x00, 0x40, 0x00, 0x00, 0x00,
  0xb8, 0xd7, 0xf8, 0xbd, 0xf2, 0x4b, 0x27, 0xbe, 0x00, 0x03, 0x08, 0xbc,
  0x21, 0x16, 0x95, 0x3e, 0x96, 0xbe, 0x2f, 0x3e, 0x98, 0x2f, 0x13, 0x3f,
  0xf0, 0xec, 0xda, 0x3e, 0x9b, 0x98, 0x0f, 0x3f, 0x28, 0x82, 0x1b, 0xbe,
  0xf7, 0x8e, 0x92, 0xbe, 0x87, 0xe3, 0xcb, 0xbe, 0xf8, 0xfc, 0xcd, 0xbc,
  0x65, 0xb3, 0x90, 0x3e, 0xe4, 0x61, 0x9f, 0xbe, 0xb3, 0xc1, 0x8b, 0xbd,
  0x5b, 0x86, 0xb0, 0xbd, 0xbc, 0xf8, 0xff, 0xff, 0xc0, 0xf8, 0xff, 0xff,
  0x0f, 0x00, 0x00, 0x00, 0x4d, 0x4c, 0x49, 0x52, 0x20, 0x43, 0x6f, 0x6e,
  0x76, 0x65, 0x72, 0x74, 0x65, 0x64, 0x2e, 0x00, 0x01, 0x00, 0x00, 0x00,
  0x14, 0x00, 0x00, 0x00, 0x00, 0x00, 0x0e, 0x00, 0x18, 0x00, 0x14, 0x00,
  0x10, 0x00, 0x0c, 0x00, 0x08, 0x00, 0x04, 0x00, 0x0e, 0x00, 0x00, 0x00,
  0x14, 0x00, 0x00, 0x00, 0x1c, 0x00, 0x00, 0x00, 0x14, 0x01, 0x00, 0x00,
  0x18, 0x01, 0x00, 0x00, 0x1c, 0x01, 0x00, 0x00, 0x04, 0x00, 0x00, 0x00,
  0x6d, 0x61, 0x69, 0x6e, 0x00, 0x00, 0x00, 0x00, 0x04, 0x00, 0x00, 0x00,
  0xb8, 0x00, 0x00, 0x00, 0x68, 0x00, 0x00, 0x00, 0x34, 0x00, 0x00, 0x00,
  0x10, 0x00, 0x00, 0x00, 0x00, 0x00, 0x0a, 0x00, 0x10, 0x00, 0x0c, 0x00,
  0x08, 0x00, 0x04, 0x00, 0x0a, 0x00, 0x00, 0x00, 0x0c, 0x00, 0x00, 0x00,
  0x10, 0x00, 0x00, 0x00, 0x01, 0x00, 0x00, 0x00, 0x01, 0x00, 0x00, 0x00,
  0x0a, 0x00, 0x00, 0x00, 0x01, 0x00, 0x00, 0x00, 0x09, 0x00, 0x00, 0x00,
  0x92, 0xff, 0xff, 0xff, 0x10, 0x00, 0x00, 0x00, 0x00, 0x00, 0x00, 0x08,
  0x0c, 0x00, 0x00, 0x00, 0x10, 0x00, 0x00, 0x00, 0x68, 0xf9, 0xff, 0xff,
  0x01, 0x00, 0x00, 0x00, 0x09, 0x00, 0x00, 0x00, 0x03, 0x00, 0x00, 0x00,
  0x08, 0x00, 0x00, 0x00, 0x01, 0x00, 0x00, 0x00, 0x03, 0x00, 0x00, 0x00,
  0xc2, 0xff, 0xff, 0xff, 0x18, 0x00, 0x00, 0x00, 0x00, 0x00, 0x00, 0x08,
  0x18, 0x00, 0x00, 0x00, 0x1c, 0x00, 0x00, 0x00, 0x00, 0x00, 0x06, 0x00,
  0x08, 0x00, 0x07, 0x00, 0x06, 0x00, 0x00, 0x00, 0x00, 0x00, 0x00, 0x01,
  0x01, 0x00, 0x00, 0x00, 0x08, 0x00, 0x00, 0x00, 0x03, 0x00, 0x00, 0x00,
  0x07, 0x00, 0x00, 0x00, 0x02, 0x00, 0x00, 0x00, 0x04, 0x00, 0x00, 0x00,
  0x00, 0x00, 0x0e, 0x00, 0x14, 0x00, 0x00, 0x00, 0x10, 0x00, 0x0c, 0x00,
  0x0b, 0x00, 0x04, 0x00, 0x0e, 0x00, 0x00, 0x00, 0x1c, 0x00, 0x00, 0x00,
  0x00, 0x00, 0x00, 0x08, 0x1c, 0x00, 0x00, 0x00, 0x20, 0x00, 0x00, 0x00,
  0x0c, 0x00, 0x08, 0x00, 0x07, 0x00, 0x00, 0x00, 0x00, 0x00, 0x06, 0x00,
  0x0c, 0x00, 0x00, 0x00, 0x00, 0x00, 0x01, 0x01, 0x01, 0x00, 0x00, 0x00,
  0x07, 0x00, 0x00, 0x00, 0x03, 0x00, 0x00, 0x00, 0x00, 0x00, 0x00, 0x00,
  0x06, 0x00, 0x00, 0x00, 0x05, 0x00, 0x00, 0x00, 0x01, 0x00, 0x00, 0x00,
  0x0a, 0x00, 0x00, 0x00, 0x01, 0x00, 0x00, 0x00, 0x00, 0x00, 0x00, 0x00,
  0x0b, 0x00, 0x00, 0x00, 0xb4, 0x05, 0x00, 0x00, 0x5c, 0x05, 0x00, 0x00,
  0x04, 0x05, 0x00, 0x00, 0xc8, 0x04, 0x00, 0x00, 0x6c, 0x04, 0x00, 0x00,
  0x14, 0x04, 0x00, 0x00, 0x24, 0x02, 0x00, 0x00, 0x78, 0x01, 0x00, 0x00,
  0xdc, 0x00, 0x00, 0x00, 0x60, 0x00, 0x00, 0x00, 0x04, 0x00, 0x00, 0x00,
  0x8e, 0xfa, 0xff, 0xff, 0x00, 0x00, 0x00, 0x01, 0x14, 0x00, 0x00, 0x00,
  0x1c, 0x00, 0x00, 0x00, 0x1c, 0x00, 0x00, 0x00, 0x0b, 0x00, 0x00, 0x00,
  0x34, 0x00, 0x00, 0x00, 0x02, 0x00, 0x00, 0x00, 0xff, 0xff, 0xff, 0xff,
  0x01, 0x00, 0x00, 0x00, 0x78, 0xfa, 0xff, 0xff, 0x1b, 0x00, 0x00, 0x00,
  0x53, 0x74, 0x61, 0x74, 0x65, 0x66, 0x75, 0x6c, 0x50, 0x61, 0x72, 0x74,
  0x69, 0x74, 0x69, 0x6f, 0x6e, 0x65, 0x64, 0x43, 0x61, 0x6c, 0x6c, 0x5f,
  0x31, 0x3a, 0x30, 0x00, 0x02, 0x00, 0x00, 0x00, 0x01, 0x00, 0x00, 0x00,
  0x01, 0x00, 0x00, 0x00, 0xe6, 0xfa, 0xff, 0xff, 0x00, 0x00, 0x00, 0x01,
  0x14, 0x00, 0x00, 0x00, 0x1c, 0x00, 0x00, 0x00, 0x1c, 0x00, 0x00, 0x00,
  0x0a, 0x00, 0x00, 0x00, 0x54, 0x00, 0x00, 0x00, 0x02, 0x00, 0x00, 0x00,
  0xff, 0xff, 0xff, 0xff, 0x01, 0x00, 0x00, 0x00, 0xd0, 0xfa, 0xff, 0xff,
  0x38, 0x00, 0x00, 0x00, 0x73, 0x65, 0x71, 0x75, 0x65, 0x6e, 0x74, 0x69,
  0x61, 0x6c, 0x5f, 0x31, 0x2f, 0x64, 0x65, 0x6e, 0x73, 0x65, 0x5f, 0x32,
  0x5f, 0x31, 0x2f, 0x4d, 0x61, 0x74, 0x4d, 0x75, 0x6c, 0x3b, 0x73, 0x65,
  0x71, 0x75, 0x65, 0x6e, 0x74, 0x69, 0x61, 0x6c, 0x5f, 0x31, 0x2f, 0x64,
  0x65, 0x6e, 0x73, 0x65, 0x5f, 0x32, 0x5f, 0x31, 0x2f, 0x41, 0x64, 0x64,
  0x00, 0x00, 0x00, 0x00, 0x02, 0x00, 0x00, 0x00, 0x01, 0x00, 0x00, 0x00,
  0x01, 0x00, 0x00, 0x00, 0x5e, 0xfb, 0xff, 0xff, 0x00, 0x00, 0x00, 0x01,
  0x14, 0x00, 0x00, 0x00, 0x1c, 0x00, 0x00, 0x00, 0x1c, 0x00, 0x00, 0x00,
  0x09, 0x00, 0x00, 0x00, 0x74, 0x00, 0x00, 0x00, 0x02, 0x00, 0x00, 0x00,
  0xff, 0xff, 0xff, 0xff, 0x10, 0x00, 0x00, 0x00, 0x48, 0xfb, 0xff, 0xff,
  0x58, 0x00, 0x00, 0x00, 0x73, 0x65, 0x71, 0x75, 0x65, 0x6e, 0x74, 0x69,
  0x61, 0x6c, 0x5f, 0x31, 0x2f, 0x64, 0x65, 0x6e, 0x73, 0x65, 0x5f, 0x31,
  0x5f, 0x32, 0x2f, 0x4d, 0x61, 0x74, 0x4d, 0x75, 0x6c, 0x3b, 0x73, 0x65,
  0x71, 0x75, 0x65, 0x6e, 0x74, 0x69, 0x61, 0x6c, 0x5f, 0x31, 0x2f, 0x64,
  0x65, 0x6e, 0x73, 0x65, 0x5f, 0x31, 0x5f, 0x32, 0x2f, 0x52, 0x65, 0x6c,
  0x75, 0x3b, 0x73, 0x65, 0x71, 0x75, 0x65, 0x6e, 0x74, 0x69, 0x61, 0x6c,
  0x5f, 0x31, 0x2f, 0x64, 0x65, 0x6e, 0x73, 0x65, 0x5f, 0x31, 0x5f, 0x32,
  0x2f, 0x42, 0x69, 0x61, 0x73, 0x41, 0x64, 0x64, 0x00, 0x00, 0x00, 0x00,
  0x02, 0x00, 0x00, 0x00, 0x01, 0x00, 0x00, 0x00, 0x10, 0x00, 0x00, 0x00,
  0xf6, 0xfb, 0xff, 0xff, 0x00, 0x00, 0x00, 0x01, 0x14, 0x00, 0x00, 0x00,
  0x1c, 0x00, 0x00, 0x00, 0x1c, 0x00, 0x00, 0x00, 0x08, 0x00, 0x00, 0x00,
  0x6c, 0x00, 0x00, 0x00, 0x02, 0x00, 0x00, 0x00, 0xff, 0xff, 0xff, 0xff,
  0x20, 0x00, 0x00, 0x00, 0xe0, 0xfb, 0xff, 0xff, 0x52, 0x00, 0x00, 0x00,
  0x73, 0x65, 0x71, 0x75, 0x65, 0x6e, 0x74, 0x69, 0x61, 0x6c, 0x5f, 0x31,
  0x2f, 0x64, 0x65, 0x6e, 0x73, 0x65, 0x5f, 0x31, 0x2f, 0x4d, 0x61, 0x74,
  0x4d, 0x75, 0x6c, 0x3b, 0x73, 0x65, 0x71, 0x75, 0x65, 0x6e, 0x74, 0x69,
  0x61, 0x6c, 0x5f, 0x31, 0x2f, 0x64, 0x65, 0x6e, 0x73, 0x65, 0x5f, 0x31,
  0x2f, 0x52, 0x65, 0x6c, 0x75, 0x3b, 0x73, 0x65, 0x71, 0x75, 0x65, 0x6e,
  0x74, 0x69, 0x61, 0x6c, 0x5f, 0x31, 0x2f, 0x64, 0x65, 0x6e, 0x73, 0x65,
  0x5f, 0x31, 0x2f, 0x42, 0x69, 0x61, 0x73, 0x41, 0x64, 0x64, 0x00, 0x00,
  0x02, 0x00, 0x00, 0x00, 0x01, 0x00, 0x00, 0x00, 0x20, 0x00, 0x00, 0x00,
  0x00, 0x00, 0x16, 0x00, 0x1c, 0x00, 0x18, 0x00, 0x17, 0x00, 0x10, 0x00,
  0x0c, 0x00, 0x08, 0x00, 0x00, 0x00, 0x00, 0x00, 0x00, 0x00, 0x07, 0x00,
  0x16, 0x00, 0x00, 0x00, 0x00, 0x00, 0x00, 0x01, 0x20, 0x00, 0x00, 0x00,
  0xb4, 0x01, 0x00, 0x00, 0x07, 0x00, 0x00, 0x00, 0x00, 0x00, 0x00, 0x09,
  0xc8, 0x01, 0x00, 0x00, 0x0c, 0x00, 0x0c, 0x00, 0x00, 0x00, 0x00, 0x00,
  0x08, 0x00, 0x04, 0x00, 0x0c, 0x00, 0x00, 0x00, 0x08, 0x00, 0x00, 0x00,
  0x0c, 0x01, 0x00, 0x00, 0x20, 0x00, 0x00, 0x00, 0x00, 0x00, 0x00, 0x00,
  0x00, 0x00, 0x00, 0x00, 0x00, 0x00, 0x00, 0x00, 0x00, 0x00, 0x00, 0x00,
  0x00, 0x00, 0x00, 0x00, 0x00, 0x00, 0x00, 0x00, 0x00, 0x00, 0x00, 0x00,
  0x00, 0x00, 0x00, 0x00, 0x00, 0x00, 0x00, 0x00, 0x00, 0x00, 0x00, 0x00,
  0x00, 0x00, 0x00, 0x00, 0x00, 0x00, 0x00, 0x00, 0x00, 0x00, 0x00, 0x00,
  0x00, 0x00, 0x00, 0x00, 0x00, 0x00, 0x00, 0x00, 0x00, 0x00, 0x00, 0x00,
  0x00, 0x00, 0x00, 0x00, 0x00, 0x00, 0x00, 0x00, 0x00, 0x00, 0x00, 0x00,
  0x00, 0x00, 0x00, 0x00, 0x00, 0x00, 0x00, 0x00, 0x00, 0x00, 0x00, 0x00,
  0x00, 0x00, 0x00, 0x00, 0x00, 0x00, 0x00, 0x00, 0x00, 0x00, 0x00, 0x00,
  0x00, 0x00, 0x00, 0x00, 0x00, 0x00, 0x00, 0x00, 0x00, 0x00, 0x00, 0x00,
  0x00, 0x00, 0x00, 0x00, 0x00, 0x00, 0x00, 0x00, 0x00, 0x00, 0x00, 0x00,
  0x00, 0x00, 0x00, 0x00, 0x00, 0x00, 0x00, 0x00, 0x00, 0x00, 0x00, 0x00,
  0x00, 0x00, 0x00, 0x00, 0x00, 0x00, 0x00, 0x00, 0x00, 0x00, 0x00, 0x00,
  0x00, 0x00, 0x00, 0x00, 0x00, 0x00, 0x00, 0x00, 0x00, 0x00, 0x00, 0x00,
  0x00, 0x00, 0x00, 0x00, 0x00, 0x00, 0x00, 0x00, 0x00, 0x00, 0x00, 0x00,
  0x00, 0x00, 0x00, 0x00, 0x00, 0x00, 0x00, 0x00, 0x00, 0x00, 0x00, 0x00,
  0x00, 0x00, 0x00, 0x00, 0x00, 0x00, 0x00, 0x00, 0x00, 0x00, 0x00, 0x00,
  0x00, 0x00, 0x00, 0x00, 0x00, 0x00, 0x00, 0x00, 0x00, 0x00, 0x00, 0x00,
  0x00, 0x00, 0x00, 0x00, 0x00, 0x00, 0x00, 0x00, 0x00, 0x00, 0x00, 0x00,
  0x00, 0x00, 0x00, 0x00, 0x00, 0x00, 0x00, 0x00, 0x00, 0x00, 0x00, 0x00,
  0x00, 0x00, 0x00, 0x00, 0x00, 0x00, 0x00, 0x00, 0x00, 0x00, 0x00, 0x00,
  0x00, 0x00, 0x00, 0x00, 0x00, 0x00, 0x00, 0x00, 0x00, 0x00, 0x00, 0x00,
  0x00, 0x00, 0x00, 0x00, 0x20, 0x00, 0x00, 0x00, 0x91, 0x21, 0xc6, 0x3a,
  0x19, 0x81, 0xcf, 0x3a, 0x9d, 0xf8, 0xc6, 0x3a, 0x98, 0x37, 0xce, 0x3a,
  0xce, 0x38, 0xc7, 0x3a, 0xa7, 0x72, 0xc2, 0x3a, 0x10, 0x85, 0xce, 0x3a,
  0xec, 0x36, 0xc7, 0x3a, 0xbe, 0x45, 0xcf, 0x3a, 0x09, 0xf9, 0xd0, 0x3a,
  0x10, 0xeb, 0xc6, 0x3a, 0x73, 0x5d, 0xca, 0x3a, 0x30, 0x04, 0xc7, 0x3a,
  0xcf, 0xa7, 0xbf, 0x3a, 0xaa, 0xb2, 0xc6, 0x3a, 0xcb, 0xa7, 0xc5, 0x3a,
  0x89, 0x4a, 0xc5, 0x3a, 0x9d, 0x8c, 0xd0, 0x3a, 0x74, 0x54, 0xc7, 0x3a,
  0x34, 0x5b, 0xca, 0x3a, 0x7b, 0x88, 0xcc, 0x3a, 0x59, 0x66, 0xcf, 0x3a,
  0x42, 0x07, 0xd2, 0x3a, 0xc3, 0x57, 0xd3, 0x3a, 0x38, 0x24, 0xc7, 0x3a,
  0xf8, 0x86, 0xc7, 0x3a, 0x53, 0x2b, 0xc4, 0x3a, 0x49, 0x83, 0xcb, 0x3a,
  0xbf, 0xc3, 0xc7, 0x3a, 0xd1, 0xcd, 0xcf, 0x3a, 0xca, 0xe4, 0xcd, 0x3a,
  0xbf, 0x11, 0xc3, 0x3a, 0x1b, 0x00, 0x00, 0x00, 0x73, 0x65, 0x71, 0x75,
  0x65, 0x6e, 0x74, 0x69, 0x61, 0x6c, 0x5f, 0x31, 0x2f, 0x64, 0x65, 0x6e,
  0x73, 0x65, 0x5f, 0x31, 0x2f, 0x4d, 0x61, 0x74, 0x4d, 0x75, 0x6c, 0x00,
  0x02, 0x00, 0x00, 0x00, 0x20, 0x00, 0x00, 0x00, 0x80, 0x00, 0x00, 0x00,
  0xde, 0xfe, 0xff, 0xff, 0x00, 0x00, 0x00, 0x01, 0x10, 0x00, 0x00, 0x00,
  0x10, 0x00, 0x00, 0x00, 0x06, 0x00, 0x00, 0x00, 0x38, 0x00, 0x00, 0x00,
  0x64, 0xfe, 0xff, 0xff, 0x2b, 0x00, 0x00, 0x00, 0x73, 0x65, 0x71, 0x75,
  0x65, 0x6e, 0x74, 0x69, 0x61, 0x6c, 0x5f, 0x31, 0x2f, 0x64, 0x65, 0x6e,
  0x73, 0x65, 0x5f, 0x31, 0x2f, 0x42, 0x69, 0x61, 0x73, 0x41, 0x64, 0x64,
  0x2f, 0x52, 0x65, 0x61, 0x64, 0x56, 0x61, 0x72, 0x69, 0x61, 0x62, 0x6c,
  0x65, 0x4f, 0x70, 0x00, 0x01, 0x00, 0x00, 0x00, 0x20, 0x00, 0x00, 0x00,
  0x32, 0xff, 0xff, 0xff, 0x00, 0x00, 0x00, 0x01, 0x10, 0x00, 0x00, 0x00,
  0x10, 0x00, 0x00, 0x00, 0x05, 0x00, 0x00, 0x00, 0x3c, 0x00, 0x00, 0x00,
  0xb8, 0xfe, 0xff, 0xff, 0x2d, 0x00, 0x00, 0x00, 0x73, 0x65, 0x71, 0x75,
  0x65, 0x6e, 0x74, 0x69, 0x61, 0x6c, 0x5f, 0x31, 0x2f, 0x64, 0x65, 0x6e,
  0x73, 0x65, 0x5f, 0x31, 0x5f, 0x32, 0x2f, 0x42, 0x69, 0x61, 0x73, 0x41,
  0x64, 0x64, 0x2f, 0x52, 0x65, 0x61, 0x64, 0x56, 0x61, 0x72, 0x69, 0x61,
  0x62, 0x6c, 0x65, 0x4f, 0x70, 0x00, 0x00, 0x00, 0x01, 0x00, 0x00, 0x00,
  0x10, 0x00, 0x00, 0x00, 0x8a, 0xff, 0xff, 0xff, 0x00, 0x00, 0x00, 0x01,
  0x10, 0x00, 0x00, 0x00, 0x10, 0x00, 0x00, 0x00, 0x04, 0x00, 0x00, 0x00,
  0x1c, 0x00, 0x00, 0x00, 0x10, 0xff, 0xff, 0xff, 0x0f, 0x00, 0x00, 0x00,
  0x61, 0x72, 0x69, 0x74, 0x68, 0x2e, 0x63, 0x6f, 0x6e, 0x73, 0x74, 0x61,
  0x6e, 0x74, 0x32, 0x00, 0x01, 0x00, 0x00, 0x00, 0x01, 0x00, 0x00, 0x00,
  0xc2, 0xff, 0xff, 0xff, 0x00, 0x00, 0x00, 0x01, 0x10, 0x00, 0x00, 0x00,
  0x10, 0x00, 0x00, 0x00, 0x03, 0x00, 0x00, 0x00, 0x1c, 0x00, 0x00, 0x00,
  0x48, 0xff, 0xff, 0xff, 0x0f, 0x00, 0x00, 0x00, 0x61, 0x72, 0x69, 0x74,
  0x68, 0x2e, 0x63, 0x6f, 0x6e, 0x73, 0x74, 0x61, 0x6e, 0x74, 0x31, 0x00,
  0x02, 0x00, 0x00, 0x00, 0x10, 0x00, 0x00, 0x00, 0x20, 0x00, 0x00, 0x00,
  0x00, 0x00, 0x16, 0x00, 0x18, 0x00, 0x14, 0x00, 0x00, 0x00, 0x10, 0x00,
  0x0c, 0x00, 0x08, 0x00, 0x00, 0x00, 0x00, 0x00, 0x00, 0x00, 0x07, 0x00,
  0x16, 0x00, 0x00, 0x00, 0x00, 0x00, 0x00, 0x01, 0x10, 0x00, 0x00, 0x00,
  0x10, 0x00, 0x00, 0x00, 0x02, 0x00, 0x00, 0x00, 0x1c, 0x00, 0x00, 0x00,
  0x9c, 0xff, 0xff, 0xff, 0x0e, 0x00, 0x00, 0x00, 0x61, 0x72, 0x69, 0x74,
  0x68, 0x2e, 0x63, 0x6f, 0x6e, 0x73, 0x74, 0x61, 0x6e, 0x74, 0x00, 0x00,
  0x02, 0x00, 0x00, 0x00, 0x01, 0x00, 0x00, 0x00, 0x10, 0x00, 0x00, 0x00,
  0x00, 0x00, 0x16, 0x00, 0x1c, 0x00, 0x18, 0x00, 0x00, 0x00, 0x14, 0x00,
  0x10, 0x00, 0x0c, 0x00, 0x00, 0x00, 0x00, 0x00, 0x08, 0x00, 0x07, 0x00,
  0x16, 0x00, 0x00, 0x00, 0x00, 0x00, 0x00, 0x01, 0x14, 0x00, 0x00, 0x00,
  0x20, 0x00, 0x00, 0x00, 0x20, 0x00, 0x00, 0x00, 0x01, 0x00, 0x00, 0x00,
  0x3c, 0x00, 0x00, 0x00, 0x02, 0x00, 0x00, 0x00, 0xff, 0xff, 0xff, 0xff,
  0x80, 0x00, 0x00, 0x00, 0x04, 0x00, 0x04, 0x00, 0x04, 0x00, 0x00, 0x00,
  0x1e, 0x00, 0x00, 0x00, 0x73, 0x65, 0x72, 0x76, 0x69, 0x6e, 0x67, 0x5f,
  0x64, 0x65, 0x66, 0x61, 0x75, 0x6c, 0x74, 0x5f, 0x6b, 0x65, 0x72, 0x61,
  0x73, 0x5f, 0x74, 0x65, 0x6e, 0x73, 0x6f, 0x72, 0x3a, 0x30, 0x00, 0x00,
  0x02, 0x00, 0x00, 0x00, 0x01, 0x00, 0x00, 0x00, 0x80, 0x00, 0x00, 0x00,
  0x02, 0x00, 0x00, 0x00, 0x2c, 0x00, 0x00, 0x00, 0x10, 0x00, 0x00, 0x00,
  0x0c, 0x00, 0x0c, 0x00, 0x0b, 0x00, 0x00, 0x00, 0x00, 0x00, 0x04, 0x00,
  0x0c, 0x00, 0x00, 0x00, 0x0e, 0x00, 0x00, 0x00, 0x00, 0x00, 0x00, 0x0e,
  0x0c, 0x00, 0x10, 0x00, 0x0f, 0x00, 0x00, 0x00, 0x08, 0x00, 0x04, 0x00,
  0x0c, 0x00, 0x00, 0x00, 0x09, 0x00, 0x00, 0x00, 0x0c, 0x00, 0x00, 0x00,
  0x00, 0x00, 0x00, 0x09
};
unsigned int motion_model_tflite_len = 8944;
